{
  "version": "1.0",
  "truncation": null,
  "padding": null,
  "added_tokens": [
    {
      "id": 0,
      "content": "[UNK]",
      "single_word": false,
      "lstrip": false,
      "rstrip": false,
      "normalized": false,
      "special": true
    },
    {
      "id": 1,
      "content": "[CLS]",
      "single_word": false,
      "lstrip": false,
      "rstrip": false,
      "normalized": false,
      "special": true
    },
    {
      "id": 2,
      "content": "[SEP]",
      "single_word": false,
      "lstrip": false,
      "rstrip": false,
      "normalized": false,
      "special": true
    },
    {
      "id": 3,
      "content": "[PAD]",
      "single_word": false,
      "lstrip": false,
      "rstrip": false,
      "normalized": false,
      "special": true
    },
    {
      "id": 4,
      "content": "[MASK]",
      "single_word": false,
      "lstrip": false,
      "rstrip": false,
      "normalized": false,
      "special": true
    }
  ],
  "normalizer": null,
  "pre_tokenizer": {
    "type": "Whitespace"
  },
  "post_processor": null,
  "decoder": null,
  "model": {
    "type": "BPE",
    "dropout": null,
    "unk_token": null,
    "continuing_subword_prefix": null,
    "end_of_word_suffix": null,
    "fuse_unk": false,
    "vocab": {
      "[UNK]": 0,
      "[CLS]": 1,
      "[SEP]": 2,
      "[PAD]": 3,
      "[MASK]": 4,
      "\u0000": 5,
      "\u0001": 6,
      "\u0003": 7,
      "\u0004": 8,
      "\u0005": 9,
      "\u0007": 10,
      "\b": 11,
      "\u000f": 12,
      "\u0010": 13,
      "\u0014": 14,
      "\u0015": 15,
      "\u0016": 16,
      "\u001a": 17,
      "\u001c": 18,
      "\u001d": 19,
      "\u001e": 20,
      "\u001f": 21,
      "!": 22,
      "\"": 23,
      "#": 24,
      "$": 25,
      "%": 26,
      "&": 27,
      "'": 28,
      "(": 29,
      ")": 30,
      "*": 31,
      "+": 32,
      ",": 33,
      "-": 34,
      ".": 35,
      "/": 36,
      "0": 37,
      "1": 38,
      "2": 39,
      "3": 40,
      "4": 41,
      "5": 42,
      "6": 43,
      "7": 44,
      "8": 45,
      "9": 46,
      ":": 47,
      ";": 48,
      "<": 49,
      "=": 50,
      ">": 51,
      "?": 52,
      "@": 53,
      "A": 54,
      "B": 55,
      "C": 56,
      "D": 57,
      "E": 58,
      "F": 59,
      "G": 60,
      "H": 61,
      "I": 62,
      "J": 63,
      "K": 64,
      "L": 65,
      "M": 66,
      "N": 67,
      "O": 68,
      "P": 69,
      "Q": 70,
      "R": 71,
      "S": 72,
      "T": 73,
      "U": 74,
      "V": 75,
      "W": 76,
      "X": 77,
      "Y": 78,
      "Z": 79,
      "[": 80,
      "\\": 81,
      "]": 82,
      "^": 83,
      "_": 84,
      "`": 85,
      "a": 86,
      "b": 87,
      "c": 88,
      "d": 89,
      "e": 90,
      "f": 91,
      "g": 92,
      "h": 93,
      "i": 94,
      "j": 95,
      "k": 96,
      "l": 97,
      "m": 98,
      "n": 99,
      "o": 100,
      "p": 101,
      "q": 102,
      "r": 103,
      "s": 104,
      "t": 105,
      "u": 106,
      "v": 107,
      "w": 108,
      "x": 109,
      "y": 110,
      "z": 111,
      "{": 112,
      "|": 113,
      "}": 114,
      "~": 115,
      "": 116,
      "": 117,
      "": 118,
      "": 119,
      "": 120,
      "": 121,
      "": 122,
      "": 123,
      "": 124,
      "": 125,
      "": 126,
      "": 127,
      "": 128,
      "": 129,
      "": 130,
      "": 131,
      "": 132,
      "": 133,
      "": 134,
      "": 135,
      "": 136,
      "": 137,
      "": 138,
      "": 139,
      "": 140,
      "": 141,
      "": 142,
      "": 143,
      "": 144,
      "": 145,
      "": 146,
      "¡": 147,
      "¢": 148,
      "£": 149,
      "¤": 150,
      "¥": 151,
      "¦": 152,
      "§": 153,
      "¨": 154,
      "©": 155,
      "ª": 156,
      "«": 157,
      "¬": 158,
      "­": 159,
      "®": 160,
      "¯": 161,
      "°": 162,
      "±": 163,
      "²": 164,
      "³": 165,
      "´": 166,
      "µ": 167,
      "¶": 168,
      "·": 169,
      "¸": 170,
      "¹": 171,
      "º": 172,
      "»": 173,
      "¼": 174,
      "½": 175,
      "¾": 176,
      "¿": 177,
      "À": 178,
      "Á": 179,
      "Â": 180,
      "Ã": 181,
      "Ä": 182,
      "Å": 183,
      "Æ": 184,
      "Ç": 185,
      "È": 186,
      "É": 187,
      "Ê": 188,
      "Ë": 189,
      "Ì": 190,
      "Í": 191,
      "Î": 192,
      "Ï": 193,
      "Ð": 194,
      "Ñ": 195,
      "Ò": 196,
      "Ó": 197,
      "Ô": 198,
      "Õ": 199,
      "Ö": 200,
      "×": 201,
      "Ø": 202,
      "Ù": 203,
      "Ú": 204,
      "Û": 205,
      "Ü": 206,
      "Ý": 207,
      "Þ": 208,
      "ß": 209,
      "à": 210,
      "á": 211,
      "â": 212,
      "ã": 213,
      "ä": 214,
      "å": 215,
      "æ": 216,
      "ç": 217,
      "è": 218,
      "é": 219,
      "ê": 220,
      "ë": 221,
      "ì": 222,
      "í": 223,
      "î": 224,
      "ï": 225,
      "ð": 226,
      "ñ": 227,
      "ò": 228,
      "ó": 229,
      "ô": 230,
      "õ": 231,
      "ö": 232,
      "÷": 233,
      "ø": 234,
      "ù": 235,
      "ú": 236,
      "û": 237,
      "ü": 238,
      "ý": 239,
      "þ": 240,
      "ÿ": 241,
      "Ā": 242,
      "ā": 243,
      "Ă": 244,
      "ă": 245,
      "ą": 246,
      "Ć": 247,
      "ć": 248,
      "Ĉ": 249,
      "ĉ": 250,
      "ċ": 251,
      "Č": 252,
      "č": 253,
      "ď": 254,
      "đ": 255,
      "Ē": 256,
      "ē": 257,
      "Ĕ": 258,
      "ĕ": 259,
      "Ė": 260,
      "ė": 261,
      "Ę": 262,
      "ę": 263,
      "Ě": 264,
      "ě": 265,
      "Ĝ": 266,
      "ĝ": 267,
      "ğ": 268,
      "Ġ": 269,
      "ġ": 270,
      "Ĥ": 271,
      "Ħ": 272,
      "ħ": 273,
      "Ĩ": 274,
      "ĩ": 275,
      "Ī": 276,
      "ī": 277,
      "Ĭ": 278,
      "ĭ": 279,
      "į": 280,
      "İ": 281,
      "ı": 282,
      "ĵ": 283,
      "ļ": 284,
      "Ł": 285,
      "ł": 286,
      "Ń": 287,
      "ń": 288,
      "Ň": 289,
      "ň": 290,
      "ŉ": 291,
      "Ŋ": 292,
      "ŋ": 293,
      "Ō": 294,
      "ō": 295,
      "Ŏ": 296,
      "ŏ": 297,
      "ő": 298,
      "Œ": 299,
      "œ": 300,
      "Ŕ": 301,
      "ŕ": 302,
      "Ř": 303,
      "ř": 304,
      "Ś": 305,
      "ś": 306,
      "Ŝ": 307,
      "ŝ": 308,
      "Ş": 309,
      "ş": 310,
      "Š": 311,
      "š": 312,
      "ţ": 313,
      "ť": 314,
      "ŧ": 315,
      "Ũ": 316,
      "ũ": 317,
      "Ū": 318,
      "ū": 319,
      "Ŭ": 320,
      "ŭ": 321,
      "Ů": 322,
      "ů": 323,
      "ű": 324,
      "ų": 325,
      "Ŵ": 326,
      "ŵ": 327,
      "Ŷ": 328,
      "ŷ": 329,
      "Ÿ": 330,
      "ź": 331,
      "Ż": 332,
      "ż": 333,
      "Ž": 334,
      "ž": 335,
      "ſ": 336,
      "ƀ": 337,
      "Ɔ": 338,
      "Ǝ": 339,
      "Ɛ": 340,
      "ƒ": 341,
      "ƕ": 342,
      "Ɩ": 343,
      "ƚ": 344,
      "ƥ": 345,
      "Ƨ": 346,
      "ư": 347,
      "Ƶ": 348,
      "Ʒ": 349,
      "ƿ": 350,
      "ǁ": 351,
      "ǎ": 352,
      "Ǐ": 353,
      "ǐ": 354,
      "ǒ": 355,
      "ǔ": 356,
      "Ǖ": 357,
      "ǖ": 358,
      "ǝ": 359,
      "ǟ": 360,
      "ǡ": 361,
      "Ǣ": 362,
      "ǣ": 363,
      "ǥ": 364,
      "ǧ": 365,
      "Ǫ": 366,
      "ǫ": 367,
      "ǭ": 368,
      "Ǵ": 369,
      "ǵ": 370,
      "Ƿ": 371,
      "ǹ": 372,
      "ǽ": 373,
      "ȗ": 374,
      "Ț": 375,
      "ț": 376,
      "Ȝ": 377,
      "ȝ": 378,
      "ȣ": 379,
      "Ȧ": 380,
      "ȧ": 381,
      "ȩ": 382,
      "ȫ": 383,
      "ȯ": 384,
      "ȱ": 385,
      "Ȳ": 386,
      "ȳ": 387,
      "Ȼ": 388,
      "ȼ": 389,
      "Ʌ": 390,
      "ɑ": 391,
      "ɒ": 392,
      "ɔ": 393,
      "ə": 394,
      "ɛ": 395,
      "ɣ": 396,
      "ɥ": 397,
      "ɧ": 398,
      "ɩ": 399,
      "ɪ": 400,
      "ɫ": 401,
      "ɭ": 402,
      "ɯ": 403,
      "ɱ": 404,
      "ɲ": 405,
      "ɳ": 406,
      "ɶ": 407,
      "ɹ": 408,
      "ʃ": 409,
      "ʅ": 410,
      "ʇ": 411,
      "ʊ": 412,
      "ʌ": 413,
      "ʍ": 414,
      "ʒ": 415,
      "ʘ": 416,
      "ʞ": 417,
      "ʠ": 418,
      "ʰ": 419,
      "ʲ": 420,
      "ʳ": 421,
      "ʷ": 422,
      "ʸ": 423,
      "ʹ": 424,
      "ʺ": 425,
      "ʻ": 426,
      "ʼ": 427,
      "ʽ": 428,
      "ʾ": 429,
      "ʿ": 430,
      "ˀ": 431,
      "ˆ": 432,
      "ˈ": 433,
      "ˉ": 434,
      "ˌ": 435,
      "ː": 436,
      "ˑ": 437,
      "˔": 438,
      "˕": 439,
      "˘": 440,
      "˙": 441,
      "˚": 442,
      "˛": 443,
      "˜": 444,
      "˝": 445,
      "ˡ": 446,
      "ˢ": 447,
      "ˣ": 448,
      "˭": 449,
      "˳": 450,
      "̀": 451,
      "́": 452,
      "̂": 453,
      "̃": 454,
      "̄": 455,
      "̅": 456,
      "̆": 457,
      "̇": 458,
      "̈": 459,
      "̉": 460,
      "̊": 461,
      "̋": 462,
      "̌": 463,
      "̍": 464,
      "̑": 465,
      "̓": 466,
      "̝": 467,
      "̠": 468,
      "̢": 469,
      "̣": 470,
      "̤": 471,
      "̥": 472,
      "̦": 473,
      "̧": 474,
      "̨": 475,
      "̩": 476,
      "̭": 477,
      "̯": 478,
      "̱": 479,
      "̲": 480,
      "̴": 481,
      "̵": 482,
      "̶": 483,
      "̷": 484,
      "̸": 485,
      "̾": 486,
      "́": 487,
      "͂": 488,
      "̓": 489,
      "̈́": 490,
      "ͅ": 491,
      "͆": 492,
      "͐": 493,
      "͒": 494,
      "͕": 495,
      "͜": 496,
      "͝": 497,
      "͞": 498,
      "͠": 499,
      "͡": 500,
      "ͣ": 501,
      "ͤ": 502,
      "ͥ": 503,
      "ͦ": 504,
      "ͧ": 505,
      "ͨ": 506,
      "ͩ": 507,
      "ͪ": 508,
      "ͬ": 509,
      "ͭ": 510,
      "ͮ": 511,
      "Ͱ": 512,
      "ʹ": 513,
      "͵": 514,
      ";": 515,
      "΄": 516,
      "΅": 517,
      "Ά": 518,
      "·": 519,
      "Έ": 520,
      "Ή": 521,
      "Ί": 522,
      "Ό": 523,
      "Ύ": 524,
      "Ώ": 525,
      "ΐ": 526,
      "Α": 527,
      "Β": 528,
      "Γ": 529,
      "Δ": 530,
      "Ε": 531,
      "Ζ": 532,
      "Η": 533,
      "Θ": 534,
      "Ι": 535,
      "Κ": 536,
      "Λ": 537,
      "Μ": 538,
      "Ν": 539,
      "Ξ": 540,
      "Ο": 541,
      "Π": 542,
      "Ρ": 543,
      "Σ": 544,
      "Τ": 545,
      "Υ": 546,
      "Φ": 547,
      "Χ": 548,
      "Ψ": 549,
      "Ω": 550,
      "Ϊ": 551,
      "ά": 552,
      "έ": 553,
      "ή": 554,
      "ί": 555,
      "ΰ": 556,
      "α": 557,
      "β": 558,
      "γ": 559,
      "δ": 560,
      "ε": 561,
      "ζ": 562,
      "η": 563,
      "θ": 564,
      "ι": 565,
      "κ": 566,
      "λ": 567,
      "μ": 568,
      "ν": 569,
      "ξ": 570,
      "ο": 571,
      "π": 572,
      "ρ": 573,
      "ς": 574,
      "σ": 575,
      "τ": 576,
      "υ": 577,
      "φ": 578,
      "χ": 579,
      "ψ": 580,
      "ω": 581,
      "ϊ": 582,
      "ϋ": 583,
      "ό": 584,
      "ύ": 585,
      "ώ": 586,
      "ϐ": 587,
      "ϑ": 588,
      "ϒ": 589,
      "ϕ": 590,
      "ϖ": 591,
      "ϗ": 592,
      "Ϙ": 593,
      "ϙ": 594,
      "Ϛ": 595,
      "ϛ": 596,
      "Ϝ": 597,
      "ϝ": 598,
      "Ϟ": 599,
      "ϟ": 600,
      "ϡ": 601,
      "ϥ": 602,
      "ϫ": 603,
      "ϯ": 604,
      "ϰ": 605,
      "ϱ": 606,
      "ϲ": 607,
      "ϴ": 608,
      "ϵ": 609,
      "϶": 610,
      "Ϲ": 611,
      "Ϻ": 612,
      "ϻ": 613,
      "Ͻ": 614,
      "Ђ": 615,
      "Є": 616,
      "І": 617,
      "Ј": 618,
      "Љ": 619,
      "Њ": 620,
      "Џ": 621,
      "А": 622,
      "Б": 623,
      "В": 624,
      "Г": 625,
      "Д": 626,
      "Е": 627,
      "Ж": 628,
      "З": 629,
      "И": 630,
      "Й": 631,
      "К": 632,
      "Л": 633,
      "М": 634,
      "Н": 635,
      "О": 636,
      "П": 637,
      "Р": 638,
      "С": 639,
      "Т": 640,
      "У": 641,
      "Ф": 642,
      "Х": 643,
      "Ц": 644,
      "Ч": 645,
      "Ш": 646,
      "Щ": 647,
      "Ъ": 648,
      "Ы": 649,
      "Ь": 650,
      "Э": 651,
      "Ю": 652,
      "Я": 653,
      "а": 654,
      "б": 655,
      "в": 656,
      "г": 657,
      "д": 658,
      "е": 659,
      "ж": 660,
      "з": 661,
      "и": 662,
      "й": 663,
      "к": 664,
      "л": 665,
      "м": 666,
      "н": 667,
      "о": 668,
      "п": 669,
      "р": 670,
      "с": 671,
      "т": 672,
      "у": 673,
      "ф": 674,
      "х": 675,
      "ц": 676,
      "ч": 677,
      "ш": 678,
      "щ": 679,
      "ъ": 680,
      "ы": 681,
      "ь": 682,
      "э": 683,
      "ю": 684,
      "я": 685,
      "ё": 686,
      "ђ": 687,
      "є": 688,
      "і": 689,
      "ј": 690,
      "ћ": 691,
      "ў": 692,
      "Ѣ": 693,
      "ѣ": 694,
      "Ѳ": 695,
      "ѳ": 696,
      "Ѵ": 697,
      "ѵ": 698,
      "җ": 699,
      "ҫ": 700,
      "ӑ": 701,
      "ӱ": 702,
      "Ԁ": 703,
      "Ԃ": 704,
      "Ԋ": 705,
      "Ա": 706,
      "Ե": 707,
      "Զ": 708,
      "Ը": 709,
      "Ի": 710,
      "Ն": 711,
      "Փ": 712,
      "ա": 713,
      "բ": 714,
      "գ": 715,
      "ե": 716,
      "զ": 717,
      "թ": 718,
      "ի": 719,
      "լ": 720,
      "խ": 721,
      "ծ": 722,
      "կ": 723,
      "հ": 724,
      "ղ": 725,
      "մ": 726,
      "ն": 727,
      "ո": 728,
      "չ": 729,
      "պ": 730,
      "ս": 731,
      "վ": 732,
      "տ": 733,
      "ր": 734,
      "ց": 735,
      "ւ": 736,
      "փ": 737,
      "ք": 738,
      "օ": 739,
      "և": 740,
      "֑": 741,
      "֒": 742,
      "֓": 743,
      "֔": 744,
      "֕": 745,
      "֖": 746,
      "֗": 747,
      "֘": 748,
      "֙": 749,
      "֚": 750,
      "֛": 751,
      "֜": 752,
      "֝": 753,
      "֞": 754,
      "֟": 755,
      "֠": 756,
      "֡": 757,
      "֢": 758,
      "֣": 759,
      "֤": 760,
      "֥": 761,
      "֦": 762,
      "֧": 763,
      "֨": 764,
      "֩": 765,
      "֫": 766,
      "֬": 767,
      "֭": 768,
      "֮": 769,
      "֯": 770,
      "ְ": 771,
      "ֱ": 772,
      "ֲ": 773,
      "ֳ": 774,
      "ִ": 775,
      "ֵ": 776,
      "ֶ": 777,
      "ַ": 778,
      "ָ": 779,
      "ֹ": 780,
      "ֺ": 781,
      "ֻ": 782,
      "ּ": 783,
      "ֽ": 784,
      "־": 785,
      "׀": 786,
      "ׁ": 787,
      "ׂ": 788,
      "׃": 789,
      "ׄ": 790,
      "ׇ": 791,
      "א": 792,
      "ב": 793,
      "ג": 794,
      "ד": 795,
      "ה": 796,
      "ו": 797,
      "ז": 798,
      "ח": 799,
      "ט": 800,
      "י": 801,
      "ך": 802,
      "כ": 803,
      "ל": 804,
      "ם": 805,
      "מ": 806,
      "ן": 807,
      "נ": 808,
      "ס": 809,
      "ע": 810,
      "ף": 811,
      "פ": 812,
      "ץ": 813,
      "צ": 814,
      "ק": 815,
      "ר": 816,
      "ש": 817,
      "ת": 818,
      "ױ": 819,
      "ײ": 820,
      "׳": 821,
      "״": 822,
      "،": 823,
      "؟": 824,
      "ء": 825,
      "آ": 826,
      "أ": 827,
      "ؤ": 828,
      "إ": 829,
      "ئ": 830,
      "ا": 831,
      "ب": 832,
      "ة": 833,
      "ت": 834,
      "ث": 835,
      "ج": 836,
      "ح": 837,
      "خ": 838,
      "د": 839,
      "ذ": 840,
      "ر": 841,
      "ز": 842,
      "س": 843,
      "ش": 844,
      "ص": 845,
      "ض": 846,
      "ط": 847,
      "ظ": 848,
      "ع": 849,
      "غ": 850,
      "ف": 851,
      "ق": 852,
      "ك": 853,
      "ل": 854,
      "م": 855,
      "ن": 856,
      "ه": 857,
      "و": 858,
      "ى": 859,
      "ي": 860,
      "ً": 861,
      "ٌ": 862,
      "َ": 863,
      "ُ": 864,
      "ِ": 865,
      "ّ": 866,
      "ْ": 867,
      "٘": 868,
      "٢": 869,
      "٥": 870,
      "٦": 871,
      "٧": 872,
      "ٱ": 873,
      "پ": 874,
      "چ": 875,
      "ڙ": 876,
      "ک": 877,
      "گ": 878,
      "ۃ": 879,
      "ی": 880,
      "ܐ": 881,
      "ܒ": 882,
      "ܓ": 883,
      "ܕ": 884,
      "ܗ": 885,
      "ܘ": 886,
      "ܙ": 887,
      "ܚ": 888,
      "ܛ": 889,
      "ܝ": 890,
      "ܠ": 891,
      "ܡ": 892,
      "ܢ": 893,
      "ܣ": 894,
      "ܤ": 895,
      "ܥ": 896,
      "ܦ": 897,
      "ܩ": 898,
      "ܪ": 899,
      "ܫ": 900,
      "ܬ": 901,
      "ܰ": 902,
      "ܳ": 903,
      "ܵ": 904,
      "ܿ": 905,
      "ࣨ": 906,
      "ट": 907,
      "ठ": 908,
      "न": 909,
      "ब": 910,
      "म": 911,
      "र": 912,
      "ल": 913,
      "व": 914,
      "स": 915,
      "ा": 916,
      "ि": 917,
      "ी": 918,
      "्": 919,
      "ढ़": 920,
      "ന": 921,
      "་": 922,
      "ཁ": 923,
      "ག": 924,
      "ང": 925,
      "ཆ": 926,
      "ཇ": 927,
      "ཉ": 928,
      "ཎ": 929,
      "ད": 930,
      "ན": 931,
      "པ": 932,
      "ཕ": 933,
      "བ": 934,
      "མ": 935,
      "ཚ": 936,
      "ཛ": 937,
      "འ": 938,
      "ར": 939,
      "ལ": 940,
      "ས": 941,
      "ཧ": 942,
      "ཨ": 943,
      "ཱ": 944,
      "ི": 945,
      "ུ": 946,
      "ེ": 947,
      "ོ": 948,
      "ཾ": 949,
      "ྃ": 950,
      "ྐ": 951,
      "ྒ": 952,
      "ྟ": 953,
      "ྨ": 954,
      "ྭ": 955,
      "ྱ": 956,
      "ྲ": 957,
      "ྷ": 958,
      "Ⴤ": 959,
      "Ꮋ": 960,
      "Ꮩ": 961,
      "ᐯ": 962,
      "ᐱ": 963,
      "ᒥ": 964,
      "ᒪ": 965,
      "ᕼ": 966,
      "ᖤ": 967,
      "ᗜ": 968,
      "ᚠ": 969,
      "ᚢ": 970,
      "ᚤ": 971,
      "ᚦ": 972,
      "ᚨ": 973,
      "ᚩ": 974,
      "ᚭ": 975,
      "ᚮ": 976,
      "ᚱ": 977,
      "ᚳ": 978,
      "ᚴ": 979,
      "ᚷ": 980,
      "ᚺ": 981,
      "ᚻ": 982,
      "ᚼ": 983,
      "ᚾ": 984,
      "ᚿ": 985,
      "ᛁ": 986,
      "ᛂ": 987,
      "ᛅ": 988,
      "ᛆ": 989,
      "ᛉ": 990,
      "ᛋ": 991,
      "ᛌ": 992,
      "ᛍ": 993,
      "ᛏ": 994,
      "ᛐ": 995,
      "ᛑ": 996,
      "ᛒ": 997,
      "ᛖ": 998,
      "ᛗ": 999,
      "ᛘ": 1000,
      "ᛚ": 1001,
      "ᛞ": 1002,
      "ᛟ": 1003,
      "ᛦ": 1004,
      "᛫": 1005,
      "᛬": 1006,
      "᠅": 1007,
      "ᤦ": 1008,
      "ᴊ": 1009,
      "ᴐ": 1010,
      "ᴗ": 1011,
      "ᴜ": 1012,
      "ᴣ": 1013,
      "ᴬ": 1014,
      "ᴰ": 1015,
      "ᴱ": 1016,
      "ᴴ": 1017,
      "ᴵ": 1018,
      "ᴸ": 1019,
      "ᴹ": 1020,
      "ᴺ": 1021,
      "ᴼ": 1022,
      "ᴿ": 1023,
      "ᵀ": 1024,
      "ᵁ": 1025,
      "ᵂ": 1026,
      "ᵃ": 1027,
      "ᵅ": 1028,
      "ᵆ": 1029,
      "ᵇ": 1030,
      "ᵈ": 1031,
      "ᵉ": 1032,
      "ᵊ": 1033,
      "ᵍ": 1034,
      "ᵏ": 1035,
      "ᵐ": 1036,
      "ᵒ": 1037,
      "ᵖ": 1038,
      "ᵗ": 1039,
      "ᵘ": 1040,
      "ᵛ": 1041,
      "ᵞ": 1042,
      "ᵢ": 1043,
      "ᵣ": 1044,
      "ᵥ": 1045,
      "ᵬ": 1046,
      "ᵭ": 1047,
      "ᵹ": 1048,
      "ᶙ": 1049,
      "ᶜ": 1050,
      "ᶠ": 1051,
      "ᶻ": 1052,
      "ᷗ": 1053,
      "ᷛ": 1054,
      "ḁ": 1055,
      "ḃ": 1056,
      "ḅ": 1057,
      "Ḋ": 1058,
      "ḋ": 1059,
      "Ḍ": 1060,
      "ḍ": 1061,
      "Ḏ": 1062,
      "ḏ": 1063,
      "ḗ": 1064,
      "ḙ": 1065,
      "ḟ": 1066,
      "Ḡ": 1067,
      "ḡ": 1068,
      "Ḣ": 1069,
      "ḣ": 1070,
      "Ḥ": 1071,
      "ḥ": 1072,
      "ḯ": 1073,
      "Ḳ": 1074,
      "ḳ": 1075,
      "Ḵ": 1076,
      "ḵ": 1077,
      "Ḷ": 1078,
      "ḷ": 1079,
      "ḻ": 1080,
      "ḿ": 1081,
      "ṁ": 1082,
      "ṃ": 1083,
      "Ṅ": 1084,
      "ṅ": 1085,
      "Ṇ": 1086,
      "ṇ": 1087,
      "ṉ": 1088,
      "Ṓ": 1089,
      "ṓ": 1090,
      "ṕ": 1091,
      "ṗ": 1092,
      "ṙ": 1093,
      "Ṛ": 1094,
      "ṛ": 1095,
      "Ṡ": 1096,
      "ṡ": 1097,
      "Ṣ": 1098,
      "ṣ": 1099,
      "ṥ": 1100,
      "ṫ": 1101,
      "Ṭ": 1102,
      "ṭ": 1103,
      "ṯ": 1104,
      "ṳ": 1105,
      "ṵ": 1106,
      "ṷ": 1107,
      "Ṽ": 1108,
      "ṽ": 1109,
      "ẃ": 1110,
      "ẅ": 1111,
      "ẇ": 1112,
      "ẋ": 1113,
      "Ẍ": 1114,
      "ẍ": 1115,
      "ẏ": 1116,
      "Ẓ": 1117,
      "ẓ": 1118,
      "ẖ": 1119,
      "Ạ": 1120,
      "ạ": 1121,
      "ả": 1122,
      "ậ": 1123,
      "ắ": 1124,
      "ẹ": 1125,
      "Ẻ": 1126,
      "ẻ": 1127,
      "Ẽ": 1128,
      "ẽ": 1129,
      "ị": 1130,
      "ọ": 1131,
      "ụ": 1132,
      "ừ": 1133,
      "ữ": 1134,
      "Ỳ": 1135,
      "ỳ": 1136,
      "Ỹ": 1137,
      "ỹ": 1138,
      "ἀ": 1139,
      "ἁ": 1140,
      "ἂ": 1141,
      "ἃ": 1142,
      "ἄ": 1143,
      "ἅ": 1144,
      "ἆ": 1145,
      "ἇ": 1146,
      "Ἀ": 1147,
      "Ἁ": 1148,
      "Ἂ": 1149,
      "Ἃ": 1150,
      "Ἄ": 1151,
      "Ἅ": 1152,
      "Ἆ": 1153,
      "ἐ": 1154,
      "ἑ": 1155,
      "ἒ": 1156,
      "ἓ": 1157,
      "ἔ": 1158,
      "ἕ": 1159,
      "Ἐ": 1160,
      "Ἑ": 1161,
      "Ἒ": 1162,
      "Ἓ": 1163,
      "Ἔ": 1164,
      "Ἕ": 1165,
      "ἠ": 1166,
      "ἡ": 1167,
      "ἢ": 1168,
      "ἣ": 1169,
      "ἤ": 1170,
      "ἥ": 1171,
      "ἦ": 1172,
      "ἧ": 1173,
      "Ἠ": 1174,
      "Ἡ": 1175,
      "Ἢ": 1176,
      "Ἣ": 1177,
      "Ἤ": 1178,
      "Ἥ": 1179,
      "Ἦ": 1180,
      "Ἧ": 1181,
      "ἰ": 1182,
      "ἱ": 1183,
      "ἲ": 1184,
      "ἳ": 1185,
      "ἴ": 1186,
      "ἵ": 1187,
      "ἶ": 1188,
      "ἷ": 1189,
      "Ἰ": 1190,
      "Ἱ": 1191,
      "Ἲ": 1192,
      "Ἳ": 1193,
      "Ἴ": 1194,
      "Ἵ": 1195,
      "Ἶ": 1196,
      "Ἷ": 1197,
      "ὀ": 1198,
      "ὁ": 1199,
      "ὂ": 1200,
      "ὃ": 1201,
      "ὄ": 1202,
      "ὅ": 1203,
      "Ὀ": 1204,
      "Ὁ": 1205,
      "Ὂ": 1206,
      "Ὃ": 1207,
      "Ὄ": 1208,
      "Ὅ": 1209,
      "ὐ": 1210,
      "ὑ": 1211,
      "ὒ": 1212,
      "ὓ": 1213,
      "ὔ": 1214,
      "ὕ": 1215,
      "ὖ": 1216,
      "ὗ": 1217,
      "Ὑ": 1218,
      "Ὕ": 1219,
      "Ὗ": 1220,
      "ὠ": 1221,
      "ὡ": 1222,
      "ὢ": 1223,
      "ὣ": 1224,
      "ὤ": 1225,
      "ὥ": 1226,
      "ὦ": 1227,
      "ὧ": 1228,
      "Ὠ": 1229,
      "Ὡ": 1230,
      "Ὢ": 1231,
      "Ὣ": 1232,
      "Ὤ": 1233,
      "Ὥ": 1234,
      "Ὦ": 1235,
      "Ὧ": 1236,
      "ὰ": 1237,
      "ά": 1238,
      "ὲ": 1239,
      "έ": 1240,
      "ὴ": 1241,
      "ή": 1242,
      "ὶ": 1243,
      "ί": 1244,
      "ὸ": 1245,
      "ό": 1246,
      "ὺ": 1247,
      "ύ": 1248,
      "ὼ": 1249,
      "ώ": 1250,
      "ᾀ": 1251,
      "ᾂ": 1252,
      "ᾄ": 1253,
      "ᾅ": 1254,
      "ᾆ": 1255,
      "ᾇ": 1256,
      "ᾐ": 1257,
      "ᾑ": 1258,
      "ᾒ": 1259,
      "ᾓ": 1260,
      "ᾔ": 1261,
      "ᾕ": 1262,
      "ᾖ": 1263,
      "ᾗ": 1264,
      "ᾠ": 1265,
      "ᾡ": 1266,
      "ᾣ": 1267,
      "ᾤ": 1268,
      "ᾧ": 1269,
      "ᾨ": 1270,
      "ᾬ": 1271,
      "ᾭ": 1272,
      "ᾰ": 1273,
      "ᾱ": 1274,
      "ᾲ": 1275,
      "ᾳ": 1276,
      "ᾴ": 1277,
      "ᾶ": 1278,
      "ᾷ": 1279,
      "Ά": 1280,
      "᾽": 1281,
      "᾿": 1282,
      "῀": 1283,
      "ῂ": 1284,
      "ῃ": 1285,
      "ῄ": 1286,
      "ῆ": 1287,
      "ῇ": 1288,
      "Ὲ": 1289,
      "Έ": 1290,
      "Ὴ": 1291,
      "Ή": 1292,
      "ῌ": 1293,
      "῍": 1294,
      "῎": 1295,
      "῏": 1296,
      "ῐ": 1297,
      "ῑ": 1298,
      "ῒ": 1299,
      "ΐ": 1300,
      "ῖ": 1301,
      "ῗ": 1302,
      "Ῑ": 1303,
      "Ὶ": 1304,
      "Ί": 1305,
      "῝": 1306,
      "῞": 1307,
      "῟": 1308,
      "ῠ": 1309,
      "ῡ": 1310,
      "ῢ": 1311,
      "ΰ": 1312,
      "ῤ": 1313,
      "ῥ": 1314,
      "ῦ": 1315,
      "ῧ": 1316,
      "Ὺ": 1317,
      "Ύ": 1318,
      "Ῥ": 1319,
      "῭": 1320,
      "΅": 1321,
      "ῲ": 1322,
      "ῳ": 1323,
      "ῴ": 1324,
      "ῶ": 1325,
      "ῷ": 1326,
      "Ό": 1327,
      "ῼ": 1328,
      "´": 1329,
      "῾": 1330,
      "‍": 1331,
      "‎": 1332,
      "‏": 1333,
      "‐": 1334,
      "‑": 1335,
      "‒": 1336,
      "–": 1337,
      "—": 1338,
      "―": 1339,
      "‖": 1340,
      "‗": 1341,
      "‘": 1342,
      "’": 1343,
      "‚": 1344,
      "‛": 1345,
      "“": 1346,
      "”": 1347,
      "„": 1348,
      "‟": 1349,
      "†": 1350,
      "‡": 1351,
      "•": 1352,
      "‥": 1353,
      "…": 1354,
      "‧": 1355,
      "‪": 1356,
      "‫": 1357,
      "‬": 1358,
      "‭": 1359,
      "‮": 1360,
      "‰": 1361,
      "′": 1362,
      "″": 1363,
      "‴": 1364,
      "‵": 1365,
      "‸": 1366,
      "‹": 1367,
      "›": 1368,
      "※": 1369,
      "‾": 1370,
      "‿": 1371,
      "⁁": 1372,
      "⁂": 1373,
      "⁄": 1374,
      "⁊": 1375,
      "⁎": 1376,
      "⁐": 1377,
      "⁓": 1378,
      "⁔": 1379,
      "⁘": 1380,
      "⁙": 1381,
      "⁝": 1382,
      "⁞": 1383,
      "⁠": 1384,
      "⁮": 1385,
      "⁰": 1386,
      "ⁱ": 1387,
      "⁴": 1388,
      "⁵": 1389,
      "⁶": 1390,
      "⁷": 1391,
      "⁸": 1392,
      "⁹": 1393,
      "⁻": 1394,
      "⁾": 1395,
      "ⁿ": 1396,
      "₀": 1397,
      "₁": 1398,
      "₂": 1399,
      "₃": 1400,
      "₄": 1401,
      "₅": 1402,
      "₆": 1403,
      "₇": 1404,
      "₈": 1405,
      "₉": 1406,
      "ₐ": 1407,
      "ₒ": 1408,
      "ₓ": 1409,
      "ₘ": 1410,
      "ₜ": 1411,
      "€": 1412,
      "₰": 1413,
      "₵": 1414,
      "⃨": 1415,
      "℀": 1416,
      "℅": 1417,
      "℈": 1418,
      "ℓ": 1419,
      "℔": 1420,
      "℞": 1421,
      "℟": 1422,
      "™": 1423,
      "℣": 1424,
      "℥": 1425,
      "ℨ": 1426,
      "ℳ": 1427,
      "⅁": 1428,
      "⅄": 1429,
      "⅌": 1430,
      "⅐": 1431,
      "⅑": 1432,
      "⅒": 1433,
      "⅓": 1434,
      "⅔": 1435,
      "⅕": 1436,
      "⅖": 1437,
      "⅗": 1438,
      "⅘": 1439,
      "⅙": 1440,
      "⅚": 1441,
      "⅛": 1442,
      "⅜": 1443,
      "⅝": 1444,
      "⅞": 1445,
      "⅟": 1446,
      "Ⅰ": 1447,
      "Ⅴ": 1448,
      "Ⅹ": 1449,
      "Ⅼ": 1450,
      "Ⅽ": 1451,
      "Ⅾ": 1452,
      "ⅿ": 1453,
      "ↀ": 1454,
      "ↁ": 1455,
      "ↂ": 1456,
      "Ↄ": 1457,
      "ↄ": 1458,
      "ↆ": 1459,
      "ↇ": 1460,
      "ↈ": 1461,
      "←": 1462,
      "↑": 1463,
      "→": 1464,
      "↓": 1465,
      "↙": 1466,
      "↰": 1467,
      "↷": 1468,
      "↿": 1469,
      "⇄": 1470,
      "⇌": 1471,
      "∂": 1472,
      "∋": 1473,
      "∑": 1474,
      "−": 1475,
      "∓": 1476,
      "∕": 1477,
      "∘": 1478,
      "√": 1479,
      "∛": 1480,
      "∜": 1481,
      "∝": 1482,
      "∞": 1483,
      "∟": 1484,
      "∠": 1485,
      "∥": 1486,
      "∧": 1487,
      "∨": 1488,
      "∩": 1489,
      "∪": 1490,
      "∫": 1491,
      "∬": 1492,
      "∴": 1493,
      "∵": 1494,
      "∶": 1495,
      "∷": 1496,
      "∹": 1497,
      "∺": 1498,
      "∽": 1499,
      "∾": 1500,
      "≅": 1501,
      "≈": 1502,
      "≍": 1503,
      "≎": 1504,
      "≏": 1505,
      "≐": 1506,
      "≚": 1507,
      "≠": 1508,
      "≡": 1509,
      "≢": 1510,
      "⊂": 1511,
      "⊃": 1512,
      "⊏": 1513,
      "⊐": 1514,
      "⊔": 1515,
      "⊕": 1516,
      "⊖": 1517,
      "⊙": 1518,
      "⊜": 1519,
      "⊝": 1520,
      "⊞": 1521,
      "⊤": 1522,
      "⊥": 1523,
      "⊼": 1524,
      "⋀": 1525,
      "⋂": 1526,
      "⋃": 1527,
      "⋅": 1528,
      "⋮": 1529,
      "⋯": 1530,
      "⌃": 1531,
      "⌅": 1532,
      "⌒": 1533,
      "⌓": 1534,
      "⌗": 1535,
      "⌠": 1536,
      "⌡": 1537,
      "〈": 1538,
      "〉": 1539,
      "⌶": 1540,
      "⎛": 1541,
      "⎜": 1542,
      "⎝": 1543,
      "⎞": 1544,
      "⎟": 1545,
      "⎠": 1546,
      "⎧": 1547,
      "⎨": 1548,
      "⎩": 1549,
      "⎪": 1550,
      "⎫": 1551,
      "⎬": 1552,
      "⎭": 1553,
      "⎮": 1554,
      "⎵": 1555,
      "⎿": 1556,
      "⏊": 1557,
      "⏌": 1558,
      "⏑": 1559,
      "⏒": 1560,
      "⏓": 1561,
      "⏔": 1562,
      "⏕": 1563,
      "⏖": 1564,
      "⏗": 1565,
      "⏘": 1566,
      "⏝": 1567,
      "⏞": 1568,
      "⏟": 1569,
      "①": 1570,
      "②": 1571,
      "③": 1572,
      "④": 1573,
      "⑤": 1574,
      "⑥": 1575,
      "⒜": 1576,
      "⒝": 1577,
      "⒞": 1578,
      "⒟": 1579,
      "⒠": 1580,
      "ⓐ": 1581,
      "⓵": 1582,
      "─": 1583,
      "━": 1584,
      "│": 1585,
      "┃": 1586,
      "┌": 1587,
      "┏": 1588,
      "┐": 1589,
      "┓": 1590,
      "└": 1591,
      "┗": 1592,
      "┘": 1593,
      "┚": 1594,
      "┛": 1595,
      "├": 1596,
      "┣": 1597,
      "┤": 1598,
      "┫": 1599,
      "┬": 1600,
      "┯": 1601,
      "┰": 1602,
      "┴": 1603,
      "┷": 1604,
      "┸": 1605,
      "┻": 1606,
      "┼": 1607,
      "╂": 1608,
      "╋": 1609,
      "═": 1610,
      "║": 1611,
      "╒": 1612,
      "╔": 1613,
      "╕": 1614,
      "╗": 1615,
      "╘": 1616,
      "╚": 1617,
      "╛": 1618,
      "╝": 1619,
      "╞": 1620,
      "╟": 1621,
      "╠": 1622,
      "╡": 1623,
      "╢": 1624,
      "╣": 1625,
      "╤": 1626,
      "╥": 1627,
      "╦": 1628,
      "╧": 1629,
      "╨": 1630,
      "╪": 1631,
      "╫": 1632,
      "╬": 1633,
      "╭": 1634,
      "╮": 1635,
      "╯": 1636,
      "╰": 1637,
      "╱": 1638,
      "╲": 1639,
      "╳": 1640,
      "╸": 1641,
      "╺": 1642,
      "▂": 1643,
      "█": 1644,
      "▌": 1645,
      "▎": 1646,
      "▐": 1647,
      "▔": 1648,
      "▕": 1649,
      "■": 1650,
      "□": 1651,
      "▢": 1652,
      "▤": 1653,
      "▨": 1654,
      "▪": 1655,
      "▭": 1656,
      "▮": 1657,
      "▱": 1658,
      "▲": 1659,
      "△": 1660,
      "▶": 1661,
      "►": 1662,
      "▼": 1663,
      "▽": 1664,
      "◀": 1665,
      "◆": 1666,
      "◇": 1667,
      "◉": 1668,
      "◊": 1669,
      "○": 1670,
      "◍": 1671,
      "●": 1672,
      "◖": 1673,
      "◠": 1674,
      "◡": 1675,
      "◬": 1676,
      "◯": 1677,
      "★": 1678,
      "☉": 1679,
      "☊": 1680,
      "☋": 1681,
      "☌": 1682,
      "☍": 1683,
      "☓": 1684,
      "☘": 1685,
      "☙": 1686,
      "☚": 1687,
      "☛": 1688,
      "☜": 1689,
      "☞": 1690,
      "☥": 1691,
      "☧": 1692,
      "☨": 1693,
      "☩": 1694,
      "☰": 1695,
      "☱": 1696,
      "☲": 1697,
      "☳": 1698,
      "☴": 1699,
      "☵": 1700,
      "☶": 1701,
      "☷": 1702,
      "☼": 1703,
      "☽": 1704,
      "☾": 1705,
      "☿": 1706,
      "♀": 1707,
      "♁": 1708,
      "♂": 1709,
      "♃": 1710,
      "♄": 1711,
      "♅": 1712,
      "♆": 1713,
      "♇": 1714,
      "♈": 1715,
      "♉": 1716,
      "♊": 1717,
      "♋": 1718,
      "♌": 1719,
      "♍": 1720,
      "♎": 1721,
      "♏": 1722,
      "♐": 1723,
      "♑": 1724,
      "♒": 1725,
      "♓": 1726,
      "♔": 1727,
      "♕": 1728,
      "♖": 1729,
      "♗": 1730,
      "♘": 1731,
      "♙": 1732,
      "♚": 1733,
      "♛": 1734,
      "♜": 1735,
      "♝": 1736,
      "♞": 1737,
      "♟": 1738,
      "♠": 1739,
      "♡": 1740,
      "♢": 1741,
      "♣": 1742,
      "♥": 1743,
      "♦": 1744,
      "♩": 1745,
      "♪": 1746,
      "♭": 1747,
      "♮": 1748,
      "♯": 1749,
      "⚀": 1750,
      "⚁": 1751,
      "⚂": 1752,
      "⚃": 1753,
      "⚄": 1754,
      "⚅": 1755,
      "⚊": 1756,
      "⚋": 1757,
      "⚌": 1758,
      "⚍": 1759,
      "⚎": 1760,
      "⚏": 1761,
      "⚐": 1762,
      "⚔": 1763,
      "⚪": 1764,
      "⚫": 1765,
      "⚬": 1766,
      "⚲": 1767,
      "⚳": 1768,
      "⚴": 1769,
      "⚵": 1770,
      "⚶": 1771,
      "⚹": 1772,
      "⛀": 1773,
      "⛁": 1774,
      "⛂": 1775,
      "⛃": 1776,
      "⛢": 1777,
      "⛳": 1778,
      "✓": 1779,
      "✕": 1780,
      "✙": 1781,
      "✝": 1782,
      "✟": 1783,
      "✠": 1784,
      "✡": 1785,
      "✩": 1786,
      "✱": 1787,
      "✲": 1788,
      "✴": 1789,
      "✶": 1790,
      "✿": 1791,
      "❀": 1792,
      "❌": 1793,
      "❦": 1794,
      "❧": 1795,
      "❯": 1796,
      "➔": 1797,
      "⟂": 1798,
      "⟙": 1799,
      "⠁": 1800,
      "⠄": 1801,
      "⦠": 1802,
      "⦻": 1803,
      "⦾": 1804,
      "⦿": 1805,
      "⧧": 1806,
      "⧫": 1807,
      "⧸": 1808,
      "⧼": 1809,
      "⨀": 1810,
      "⨁": 1811,
      "⩀": 1812,
      "⩋": 1813,
      "⩡": 1814,
      "⪌": 1815,
      "⪥": 1816,
      "⫍": 1817,
      "⫎": 1818,
      "⫛": 1819,
      "⫨": 1820,
      "⫶": 1821,
      "⬆": 1822,
      "⬜": 1823,
      "⬯": 1824,
      "⭘": 1825,
      "Ɑ": 1826,
      "Ⲁ": 1827,
      "ⲁ": 1828,
      "Ⲃ": 1829,
      "Ⲉ": 1830,
      "ⲏ": 1831,
      "Ⲓ": 1832,
      "ⲓ": 1833,
      "ⲕ": 1834,
      "ⲙ": 1835,
      "Ⲛ": 1836,
      "ⲛ": 1837,
      "ⲟ": 1838,
      "Ⲡ": 1839,
      "ⲧ": 1840,
      "Ⲫ": 1841,
      "Ⲭ": 1842,
      "Ⲯ": 1843,
      "⳨": 1844,
      "⸗": 1845,
      "⸧": 1846,
      "⸪": 1847,
      "⸫": 1848,
      "⸲": 1849,
      "⸴": 1850,
      "⸸": 1851,
      "⸺": 1852,
      "⸻": 1853,
      "、": 1854,
      "。": 1855,
      "〃": 1856,
      "〔": 1857,
      "〕": 1858,
      "ひ": 1859,
      "ア": 1860,
      "イ": 1861,
      "エ": 1862,
      "カ": 1863,
      "ガ": 1864,
      "グ": 1865,
      "ジ": 1866,
      "ス": 1867,
      "ゼ": 1868,
      "ソ": 1869,
      "ダ": 1870,
      "チ": 1871,
      "ッ": 1872,
      "ト": 1873,
      "ナ": 1874,
      "パ": 1875,
      "プ": 1876,
      "ベ": 1877,
      "マ": 1878,
      "ャ": 1879,
      "ン": 1880,
      "・": 1881,
      "ー": 1882,
      "㇀": 1883,
      "㇁": 1884,
      "㇏": 1885,
      "㇐": 1886,
      "㇑": 1887,
      "㇒": 1888,
      "㇔": 1889,
      "㇚": 1890,
      "䷞": 1891,
      "一": 1892,
      "丁": 1893,
      "七": 1894,
      "三": 1895,
      "上": 1896,
      "下": 1897,
      "不": 1898,
      "且": 1899,
      "丕": 1900,
      "世": 1901,
      "丘": 1902,
      "丞": 1903,
      "両": 1904,
      "中": 1905,
      "丸": 1906,
      "主": 1907,
      "乃": 1908,
      "久": 1909,
      "之": 1910,
      "乎": 1911,
      "乘": 1912,
      "九": 1913,
      "也": 1914,
      "乾": 1915,
      "亂": 1916,
      "了": 1917,
      "予": 1918,
      "事": 1919,
      "二": 1920,
      "于": 1921,
      "云": 1922,
      "五": 1923,
      "井": 1924,
      "亞": 1925,
      "亢": 1926,
      "交": 1927,
      "亦": 1928,
      "享": 1929,
      "京": 1930,
      "亭": 1931,
      "亶": 1932,
      "人": 1933,
      "什": 1934,
      "仁": 1935,
      "仇": 1936,
      "今": 1937,
      "仍": 1938,
      "他": 1939,
      "代": 1940,
      "令": 1941,
      "以": 1942,
      "仲": 1943,
      "任": 1944,
      "伊": 1945,
      "伋": 1946,
      "伏": 1947,
      "伯": 1948,
      "伸": 1949,
      "似": 1950,
      "伽": 1951,
      "但": 1952,
      "住": 1953,
      "何": 1954,
      "佛": 1955,
      "作": 1956,
      "佩": 1957,
      "使": 1958,
      "侃": 1959,
      "來": 1960,
      "侈": 1961,
      "例": 1962,
      "侍": 1963,
      "侏": 1964,
      "侗": 1965,
      "依": 1966,
      "侯": 1967,
      "侵": 1968,
      "係": 1969,
      "俗": 1970,
      "信": 1971,
      "修": 1972,
      "倘": 1973,
      "候": 1974,
      "值": 1975,
      "偃": 1976,
      "假": 1977,
      "偕": 1978,
      "做": 1979,
      "停": 1980,
      "健": 1981,
      "偪": 1982,
      "偶": 1983,
      "備": 1984,
      "傳": 1985,
      "傷": 1986,
      "僎": 1987,
      "僕": 1988,
      "僚": 1989,
      "儀": 1990,
      "儒": 1991,
      "儻": 1992,
      "允": 1993,
      "元": 1994,
      "充": 1995,
      "先": 1996,
      "光": 1997,
      "克": 1998,
      "免": 1999,
      "兒": 2000,
      "兗": 2001,
      "入": 2002,
      "內": 2003,
      "全": 2004,
      "兩": 2005,
      "八": 2006,
      "公": 2007,
      "六": 2008,
      "共": 2009,
      "兵": 2010,
      "其": 2011,
      "具": 2012,
      "典": 2013,
      "兼": 2014,
      "内": 2015,
      "冉": 2016,
      "冕": 2017,
      "冤": 2018,
      "冶": 2019,
      "冷": 2020,
      "准": 2021,
      "凌": 2022,
      "凡": 2023,
      "出": 2024,
      "分": 2025,
      "切": 2026,
      "列": 2027,
      "初": 2028,
      "別": 2029,
      "利": 2030,
      "到": 2031,
      "刲": 2032,
      "制": 2033,
      "刷": 2034,
      "刻": 2035,
      "則": 2036,
      "剋": 2037,
      "前": 2038,
      "剎": 2039,
      "劉": 2040,
      "劍": 2041,
      "力": 2042,
      "功": 2043,
      "加": 2044,
      "助": 2045,
      "勉": 2046,
      "勒": 2047,
      "務": 2048,
      "勝": 2049,
      "勢": 2050,
      "勤": 2051,
      "勸": 2052,
      "勾": 2053,
      "勿": 2054,
      "包": 2055,
      "化": 2056,
      "北": 2057,
      "匡": 2058,
      "匯": 2059,
      "匿": 2060,
      "十": 2061,
      "千": 2062,
      "卅": 2063,
      "升": 2064,
      "卍": 2065,
      "卐": 2066,
      "卒": 2067,
      "南": 2068,
      "博": 2069,
      "卜": 2070,
      "卞": 2071,
      "卧": 2072,
      "卯": 2073,
      "印": 2074,
      "危": 2075,
      "即": 2076,
      "卷": 2077,
      "卹": 2078,
      "卿": 2079,
      "厚": 2080,
      "原": 2081,
      "厤": 2082,
      "厲": 2083,
      "去": 2084,
      "參": 2085,
      "又": 2086,
      "及": 2087,
      "友": 2088,
      "反": 2089,
      "叔": 2090,
      "受": 2091,
      "叢": 2092,
      "口": 2093,
      "古": 2094,
      "句": 2095,
      "叭": 2096,
      "可": 2097,
      "史": 2098,
      "右": 2099,
      "司": 2100,
      "各": 2101,
      "合": 2102,
      "吉": 2103,
      "同": 2104,
      "名": 2105,
      "后": 2106,
      "吏": 2107,
      "向": 2108,
      "君": 2109,
      "吠": 2110,
      "否": 2111,
      "吳": 2112,
      "吽": 2113,
      "吾": 2114,
      "告": 2115,
      "呢": 2116,
      "周": 2117,
      "味": 2118,
      "呷": 2119,
      "呼": 2120,
      "命": 2121,
      "和": 2122,
      "咸": 2123,
      "哀": 2124,
      "品": 2125,
      "哆": 2126,
      "哉": 2127,
      "員": 2128,
      "哨": 2129,
      "哪": 2130,
      "哲": 2131,
      "唐": 2132,
      "唫": 2133,
      "唵": 2134,
      "商": 2135,
      "問": 2136,
      "啟": 2137,
      "善": 2138,
      "喇": 2139,
      "喚": 2140,
      "單": 2141,
      "嗚": 2142,
      "嘉": 2143,
      "嘗": 2144,
      "嘴": 2145,
      "器": 2146,
      "噲": 2147,
      "嚤": 2148,
      "嚴": 2149,
      "四": 2150,
      "回": 2151,
      "因": 2152,
      "固": 2153,
      "國": 2154,
      "圖": 2155,
      "土": 2156,
      "在": 2157,
      "地": 2158,
      "圻": 2159,
      "均": 2160,
      "坐": 2161,
      "坡": 2162,
      "坪": 2163,
      "坭": 2164,
      "垣": 2165,
      "垻": 2166,
      "城": 2167,
      "域": 2168,
      "埠": 2169,
      "基": 2170,
      "堂": 2171,
      "堅": 2172,
      "報": 2173,
      "塔": 2174,
      "塲": 2175,
      "墜": 2176,
      "增": 2177,
      "墨": 2178,
      "墩": 2179,
      "墳": 2180,
      "壁": 2181,
      "壓": 2182,
      "壤": 2183,
      "壩": 2184,
      "士": 2185,
      "壬": 2186,
      "壺": 2187,
      "壽": 2188,
      "夀": 2189,
      "夏": 2190,
      "夕": 2191,
      "外": 2192,
      "多": 2193,
      "夜": 2194,
      "夥": 2195,
      "大": 2196,
      "天": 2197,
      "太": 2198,
      "夫": 2199,
      "夷": 2200,
      "夾": 2201,
      "奇": 2202,
      "奈": 2203,
      "奉": 2204,
      "奕": 2205,
      "女": 2206,
      "奴": 2207,
      "奸": 2208,
      "好": 2209,
      "如": 2210,
      "妄": 2211,
      "妙": 2212,
      "妥": 2213,
      "妹": 2214,
      "妻": 2215,
      "始": 2216,
      "姓": 2217,
      "委": 2218,
      "姚": 2219,
      "威": 2220,
      "娶": 2221,
      "嬰": 2222,
      "子": 2223,
      "孔": 2224,
      "字": 2225,
      "存": 2226,
      "孝": 2227,
      "孟": 2228,
      "季": 2229,
      "孫": 2230,
      "學": 2231,
      "孺": 2232,
      "宇": 2233,
      "守": 2234,
      "安": 2235,
      "宋": 2236,
      "完": 2237,
      "宏": 2238,
      "宓": 2239,
      "宗": 2240,
      "官": 2241,
      "定": 2242,
      "宜": 2243,
      "客": 2244,
      "宣": 2245,
      "室": 2246,
      "宮": 2247,
      "宰": 2248,
      "害": 2249,
      "家": 2250,
      "容": 2251,
      "宿": 2252,
      "寅": 2253,
      "密": 2254,
      "寇": 2255,
      "寉": 2256,
      "富": 2257,
      "寐": 2258,
      "寕": 2259,
      "察": 2260,
      "實": 2261,
      "寰": 2262,
      "寵": 2263,
      "寶": 2264,
      "寺": 2265,
      "封": 2266,
      "射": 2267,
      "將": 2268,
      "專": 2269,
      "尉": 2270,
      "尊": 2271,
      "小": 2272,
      "少": 2273,
      "尚": 2274,
      "尹": 2275,
      "尺": 2276,
      "尼": 2277,
      "尾": 2278,
      "居": 2279,
      "屢": 2280,
      "層": 2281,
      "屬": 2282,
      "山": 2283,
      "屺": 2284,
      "岡": 2285,
      "岷": 2286,
      "峨": 2287,
      "峰": 2288,
      "島": 2289,
      "峻": 2290,
      "崇": 2291,
      "崖": 2292,
      "嶓": 2293,
      "嶲": 2294,
      "嶺": 2295,
      "川": 2296,
      "州": 2297,
      "工": 2298,
      "左": 2299,
      "巫": 2300,
      "已": 2301,
      "巴": 2302,
      "巽": 2303,
      "市": 2304,
      "帖": 2305,
      "帛": 2306,
      "帝": 2307,
      "師": 2308,
      "帶": 2309,
      "常": 2310,
      "平": 2311,
      "年": 2312,
      "幵": 2313,
      "并": 2314,
      "幸": 2315,
      "幹": 2316,
      "幾": 2317,
      "庄": 2318,
      "序": 2319,
      "店": 2320,
      "府": 2321,
      "度": 2322,
      "庭": 2323,
      "庵": 2324,
      "庶": 2325,
      "康": 2326,
      "庸": 2327,
      "廉": 2328,
      "廟": 2329,
      "廡": 2330,
      "廣": 2331,
      "延": 2332,
      "廷": 2333,
      "建": 2334,
      "廾": 2335,
      "廿": 2336,
      "弁": 2337,
      "式": 2338,
      "弓": 2339,
      "引": 2340,
      "弟": 2341,
      "張": 2342,
      "強": 2343,
      "彌": 2344,
      "彙": 2345,
      "彝": 2346,
      "形": 2347,
      "彭": 2348,
      "彼": 2349,
      "往": 2350,
      "待": 2351,
      "律": 2352,
      "後": 2353,
      "徐": 2354,
      "徒": 2355,
      "得": 2356,
      "從": 2357,
      "御": 2358,
      "復": 2359,
      "循": 2360,
      "徳": 2361,
      "徵": 2362,
      "德": 2363,
      "徼": 2364,
      "心": 2365,
      "必": 2366,
      "忌": 2367,
      "志": 2368,
      "忘": 2369,
      "忠": 2370,
      "快": 2371,
      "忻": 2372,
      "怒": 2373,
      "思": 2374,
      "性": 2375,
      "怱": 2376,
      "恆": 2377,
      "恐": 2378,
      "恒": 2379,
      "恕": 2380,
      "恨": 2381,
      "恩": 2382,
      "恭": 2383,
      "息": 2384,
      "悉": 2385,
      "悟": 2386,
      "患": 2387,
      "悲": 2388,
      "悼": 2389,
      "情": 2390,
      "惕": 2391,
      "惟": 2392,
      "惠": 2393,
      "惡": 2394,
      "想": 2395,
      "惹": 2396,
      "愍": 2397,
      "意": 2398,
      "愚": 2399,
      "愛": 2400,
      "感": 2401,
      "慈": 2402,
      "態": 2403,
      "慎": 2404,
      "慕": 2405,
      "慧": 2406,
      "慰": 2407,
      "慶": 2408,
      "憲": 2409,
      "應": 2410,
      "懷": 2411,
      "懼": 2412,
      "懿": 2413,
      "戀": 2414,
      "戈": 2415,
      "戎": 2416,
      "成": 2417,
      "我": 2418,
      "或": 2419,
      "戴": 2420,
      "戶": 2421,
      "所": 2422,
      "手": 2423,
      "才": 2424,
      "打": 2425,
      "扶": 2426,
      "批": 2427,
      "承": 2428,
      "技": 2429,
      "抗": 2430,
      "折": 2431,
      "抵": 2432,
      "拉": 2433,
      "拓": 2434,
      "括": 2435,
      "拱": 2436,
      "拷": 2437,
      "指": 2438,
      "按": 2439,
      "振": 2440,
      "捨": 2441,
      "捷": 2442,
      "授": 2443,
      "掌": 2444,
      "掣": 2445,
      "接": 2446,
      "措": 2447,
      "插": 2448,
      "換": 2449,
      "揭": 2450,
      "損": 2451,
      "摩": 2452,
      "撫": 2453,
      "播": 2454,
      "撰": 2455,
      "擾": 2456,
      "攝": 2457,
      "收": 2458,
      "攻": 2459,
      "放": 2460,
      "故": 2461,
      "救": 2462,
      "教": 2463,
      "敝": 2464,
      "敢": 2465,
      "散": 2466,
      "敬": 2467,
      "敵": 2468,
      "數": 2469,
      "斂": 2470,
      "斃": 2471,
      "文": 2472,
      "斗": 2473,
      "料": 2474,
      "斯": 2475,
      "新": 2476,
      "方": 2477,
      "於": 2478,
      "施": 2479,
      "旂": 2480,
      "旅": 2481,
      "旋": 2482,
      "旗": 2483,
      "既": 2484,
      "日": 2485,
      "旦": 2486,
      "旨": 2487,
      "早": 2488,
      "旺": 2489,
      "昆": 2490,
      "昇": 2491,
      "昌": 2492,
      "明": 2493,
      "易": 2494,
      "星": 2495,
      "映": 2496,
      "春": 2497,
      "昭": 2498,
      "是": 2499,
      "昺": 2500,
      "時": 2501,
      "晉": 2502,
      "晌": 2503,
      "晏": 2504,
      "晚": 2505,
      "晢": 2506,
      "普": 2507,
      "景": 2508,
      "智": 2509,
      "暗": 2510,
      "曉": 2511,
      "曰": 2512,
      "書": 2513,
      "曹": 2514,
      "曾": 2515,
      "最": 2516,
      "會": 2517,
      "月": 2518,
      "有": 2519,
      "服": 2520,
      "望": 2521,
      "朝": 2522,
      "期": 2523,
      "木": 2524,
      "未": 2525,
      "本": 2526,
      "朱": 2527,
      "朶": 2528,
      "李": 2529,
      "村": 2530,
      "杜": 2531,
      "束": 2532,
      "東": 2533,
      "松": 2534,
      "板": 2535,
      "析": 2536,
      "林": 2537,
      "果": 2538,
      "柔": 2539,
      "柱": 2540,
      "柳": 2541,
      "柴": 2542,
      "栖": 2543,
      "校": 2544,
      "栢": 2545,
      "根": 2546,
      "格": 2547,
      "桂": 2548,
      "案": 2549,
      "梁": 2550,
      "梅": 2551,
      "梓": 2552,
      "條": 2553,
      "梢": 2554,
      "棋": 2555,
      "棖": 2556,
      "棟": 2557,
      "棹": 2558,
      "楊": 2559,
      "楠": 2560,
      "業": 2561,
      "極": 2562,
      "楷": 2563,
      "榕": 2564,
      "榮": 2565,
      "樂": 2566,
      "樊": 2567,
      "樣": 2568,
      "横": 2569,
      "樹": 2570,
      "橋": 2571,
      "機": 2572,
      "橫": 2573,
      "欖": 2574,
      "次": 2575,
      "欣": 2576,
      "欬": 2577,
      "欺": 2578,
      "歆": 2579,
      "歐": 2580,
      "歛": 2581,
      "止": 2582,
      "正": 2583,
      "此": 2584,
      "步": 2585,
      "武": 2586,
      "歲": 2587,
      "歷": 2588,
      "歸": 2589,
      "死": 2590,
      "殊": 2591,
      "殤": 2592,
      "殺": 2593,
      "殿": 2594,
      "毋": 2595,
      "母": 2596,
      "毎": 2597,
      "每": 2598,
      "比": 2599,
      "毛": 2600,
      "氏": 2601,
      "民": 2602,
      "水": 2603,
      "永": 2604,
      "求": 2605,
      "汎": 2606,
      "汝": 2607,
      "江": 2608,
      "池": 2609,
      "汪": 2610,
      "汲": 2611,
      "沅": 2612,
      "沉": 2613,
      "沖": 2614,
      "沙": 2615,
      "沛": 2616,
      "河": 2617,
      "治": 2618,
      "沿": 2619,
      "法": 2620,
      "波": 2621,
      "泥": 2622,
      "泰": 2623,
      "洋": 2624,
      "洗": 2625,
      "洛": 2626,
      "洞": 2627,
      "津": 2628,
      "洪": 2629,
      "洱": 2630,
      "洲": 2631,
      "活": 2632,
      "洽": 2633,
      "派": 2634,
      "流": 2635,
      "海": 2636,
      "消": 2637,
      "淨": 2638,
      "淫": 2639,
      "深": 2640,
      "淳": 2641,
      "淵": 2642,
      "淸": 2643,
      "清": 2644,
      "減": 2645,
      "渠": 2646,
      "渡": 2647,
      "港": 2648,
      "渴": 2649,
      "游": 2650,
      "渾": 2651,
      "湘": 2652,
      "湯": 2653,
      "溝": 2654,
      "溪": 2655,
      "溫": 2656,
      "滄": 2657,
      "滅": 2658,
      "滇": 2659,
      "滋": 2660,
      "漆": 2661,
      "漢": 2662,
      "潔": 2663,
      "潞": 2664,
      "潭": 2665,
      "澂": 2666,
      "澗": 2667,
      "澤": 2668,
      "澹": 2669,
      "濂": 2670,
      "濱": 2671,
      "瀾": 2672,
      "火": 2673,
      "災": 2674,
      "為": 2675,
      "烏": 2676,
      "烹": 2677,
      "無": 2678,
      "然": 2679,
      "照": 2680,
      "熙": 2681,
      "熱": 2682,
      "燄": 2683,
      "燈": 2684,
      "燒": 2685,
      "燕": 2686,
      "營": 2687,
      "爭": 2688,
      "爲": 2689,
      "父": 2690,
      "爾": 2691,
      "版": 2692,
      "牛": 2693,
      "牟": 2694,
      "牢": 2695,
      "牧": 2696,
      "物": 2697,
      "特": 2698,
      "犬": 2699,
      "犯": 2700,
      "狂": 2701,
      "狃": 2702,
      "狄": 2703,
      "獄": 2704,
      "獅": 2705,
      "獨": 2706,
      "獻": 2707,
      "玀": 2708,
      "玄": 2709,
      "玉": 2710,
      "王": 2711,
      "班": 2712,
      "現": 2713,
      "琁": 2714,
      "球": 2715,
      "理": 2716,
      "琉": 2717,
      "琳": 2718,
      "琴": 2719,
      "瑀": 2720,
      "瑗": 2721,
      "璃": 2722,
      "璩": 2723,
      "瓦": 2724,
      "甄": 2725,
      "甘": 2726,
      "生": 2727,
      "產": 2728,
      "用": 2729,
      "甫": 2730,
      "甯": 2731,
      "田": 2732,
      "由": 2733,
      "甲": 2734,
      "申": 2735,
      "男": 2736,
      "甸": 2737,
      "町": 2738,
      "界": 2739,
      "畏": 2740,
      "略": 2741,
      "番": 2742,
      "畫": 2743,
      "異": 2744,
      "當": 2745,
      "疆": 2746,
      "疏": 2747,
      "疾": 2748,
      "病": 2749,
      "登": 2750,
      "發": 2751,
      "白": 2752,
      "百": 2753,
      "的": 2754,
      "皆": 2755,
      "皇": 2756,
      "皋": 2757,
      "皙": 2758,
      "皤": 2759,
      "皮": 2760,
      "盛": 2761,
      "盡": 2762,
      "盪": 2763,
      "目": 2764,
      "直": 2765,
      "相": 2766,
      "省": 2767,
      "眉": 2768,
      "看": 2769,
      "真": 2770,
      "眾": 2771,
      "督": 2772,
      "睦": 2773,
      "睾": 2774,
      "瞻": 2775,
      "瞿": 2776,
      "矣": 2777,
      "知": 2778,
      "石": 2779,
      "破": 2780,
      "碑": 2781,
      "磉": 2782,
      "磧": 2783,
      "礒": 2784,
      "礱": 2785,
      "社": 2786,
      "祀": 2787,
      "祈": 2788,
      "祖": 2789,
      "神": 2790,
      "祠": 2791,
      "祥": 2792,
      "祺": 2793,
      "祿": 2794,
      "禁": 2795,
      "福": 2796,
      "禮": 2797,
      "禹": 2798,
      "禽": 2799,
      "秀": 2800,
      "私": 2801,
      "秋": 2802,
      "科": 2803,
      "秦": 2804,
      "程": 2805,
      "種": 2806,
      "稱": 2807,
      "穀": 2808,
      "穆": 2809,
      "穌": 2810,
      "穎": 2811,
      "穰": 2812,
      "空": 2813,
      "窩": 2814,
      "窮": 2815,
      "立": 2816,
      "站": 2817,
      "章": 2818,
      "端": 2819,
      "竹": 2820,
      "第": 2821,
      "筆": 2822,
      "等": 2823,
      "策": 2824,
      "箭": 2825,
      "節": 2826,
      "篇": 2827,
      "籍": 2828,
      "米": 2829,
      "粗": 2830,
      "粵": 2831,
      "粻": 2832,
      "精": 2833,
      "糧": 2834,
      "系": 2835,
      "紀": 2836,
      "約": 2837,
      "紇": 2838,
      "納": 2839,
      "紐": 2840,
      "級": 2841,
      "素": 2842,
      "索": 2843,
      "終": 2844,
      "結": 2845,
      "絞": 2846,
      "給": 2847,
      "統": 2848,
      "經": 2849,
      "網": 2850,
      "緣": 2851,
      "緯": 2852,
      "緻": 2853,
      "縚": 2854,
      "縣": 2855,
      "縱": 2856,
      "縵": 2857,
      "總": 2858,
      "繆": 2859,
      "繇": 2860,
      "繫": 2861,
      "纂": 2862,
      "續": 2863,
      "罔": 2864,
      "罕": 2865,
      "罪": 2866,
      "置": 2867,
      "罰": 2868,
      "罵": 2869,
      "羅": 2870,
      "羊": 2871,
      "美": 2872,
      "羔": 2873,
      "群": 2874,
      "義": 2875,
      "羲": 2876,
      "羽": 2877,
      "翁": 2878,
      "翟": 2879,
      "翼": 2880,
      "老": 2881,
      "考": 2882,
      "者": 2883,
      "而": 2884,
      "耐": 2885,
      "耕": 2886,
      "耳": 2887,
      "耶": 2888,
      "聖": 2889,
      "聞": 2890,
      "聲": 2891,
      "職": 2892,
      "聽": 2893,
      "肅": 2894,
      "肉": 2895,
      "肩": 2896,
      "背": 2897,
      "能": 2898,
      "脖": 2899,
      "脩": 2900,
      "腊": 2901,
      "膽": 2902,
      "臣": 2903,
      "臥": 2904,
      "臨": 2905,
      "自": 2906,
      "臭": 2907,
      "至": 2908,
      "致": 2909,
      "臺": 2910,
      "與": 2911,
      "興": 2912,
      "舖": 2913,
      "舟": 2914,
      "般": 2915,
      "船": 2916,
      "良": 2917,
      "色": 2918,
      "艸": 2919,
      "芝": 2920,
      "花": 2921,
      "芻": 2922,
      "苑": 2923,
      "若": 2924,
      "苦": 2925,
      "英": 2926,
      "范": 2927,
      "茢": 2928,
      "茲": 2929,
      "茶": 2930,
      "荀": 2931,
      "草": 2932,
      "荒": 2933,
      "莊": 2934,
      "莫": 2935,
      "菜": 2936,
      "菩": 2937,
      "華": 2938,
      "菴": 2939,
      "萊": 2940,
      "萬": 2941,
      "落": 2942,
      "葉": 2943,
      "著": 2944,
      "葛": 2945,
      "葢": 2946,
      "蒙": 2947,
      "蒧": 2948,
      "蒲": 2949,
      "蒼": 2950,
      "蓋": 2951,
      "蓬": 2952,
      "蓮": 2953,
      "蓺": 2954,
      "蔑": 2955,
      "蔡": 2956,
      "蔬": 2957,
      "蕪": 2958,
      "蕭": 2959,
      "薛": 2960,
      "薩": 2961,
      "藍": 2962,
      "藏": 2963,
      "藐": 2964,
      "藝": 2965,
      "藥": 2966,
      "藩": 2967,
      "蘧": 2968,
      "蘭": 2969,
      "虎": 2970,
      "虔": 2971,
      "處": 2972,
      "虙": 2973,
      "虛": 2974,
      "虞": 2975,
      "虫": 2976,
      "蛉": 2977,
      "蛾": 2978,
      "蜀": 2979,
      "蜻": 2980,
      "蝻": 2981,
      "融": 2982,
      "螺": 2983,
      "蟬": 2984,
      "蟻": 2985,
      "蠻": 2986,
      "衆": 2987,
      "行": 2988,
      "衍": 2989,
      "街": 2990,
      "衙": 2991,
      "衛": 2992,
      "衣": 2993,
      "表": 2994,
      "袁": 2995,
      "袓": 2996,
      "被": 2997,
      "裏": 2998,
      "裕": 2999,
      "裘": 3000,
      "補": 3001,
      "裡": 3002,
      "裨": 3003,
      "製": 3004,
      "襄": 3005,
      "西": 3006,
      "要": 3007,
      "見": 3008,
      "規": 3009,
      "視": 3010,
      "親": 3011,
      "覺": 3012,
      "覽": 3013,
      "觀": 3014,
      "角": 3015,
      "解": 3016,
      "言": 3017,
      "訓": 3018,
      "記": 3019,
      "許": 3020,
      "註": 3021,
      "詁": 3022,
      "詈": 3023,
      "詣": 3024,
      "試": 3025,
      "詩": 3026,
      "該": 3027,
      "詳": 3028,
      "語": 3029,
      "誣": 3030,
      "誤": 3031,
      "說": 3032,
      "誰": 3033,
      "課": 3034,
      "請": 3035,
      "論": 3036,
      "諭": 3037,
      "諸": 3038,
      "謁": 3039,
      "謂": 3040,
      "謄": 3041,
      "謊": 3042,
      "謗": 3043,
      "講": 3044,
      "證": 3045,
      "譜": 3046,
      "譯": 3047,
      "護": 3048,
      "讀": 3049,
      "讎": 3050,
      "讓": 3051,
      "谷": 3052,
      "豈": 3053,
      "豐": 3054,
      "象": 3055,
      "豢": 3056,
      "貞": 3057,
      "負": 3058,
      "財": 3059,
      "貢": 3060,
      "貧": 3061,
      "貨": 3062,
      "貪": 3063,
      "貴": 3064,
      "買": 3065,
      "費": 3066,
      "貼": 3067,
      "貿": 3068,
      "賂": 3069,
      "賄": 3070,
      "賈": 3071,
      "賊": 3072,
      "賓": 3073,
      "賜": 3074,
      "賢": 3075,
      "賣": 3076,
      "賤": 3077,
      "賴": 3078,
      "贛": 3079,
      "赤": 3080,
      "起": 3081,
      "越": 3082,
      "趙": 3083,
      "距": 3084,
      "路": 3085,
      "跳": 3086,
      "蹄": 3087,
      "身": 3088,
      "躬": 3089,
      "車": 3090,
      "軍": 3091,
      "軟": 3092,
      "輯": 3093,
      "輿": 3094,
      "轉": 3095,
      "辛": 3096,
      "辦": 3097,
      "辨": 3098,
      "辯": 3099,
      "辰": 3100,
      "辱": 3101,
      "農": 3102,
      "迂": 3103,
      "近": 3104,
      "迦": 3105,
      "述": 3106,
      "迷": 3107,
      "追": 3108,
      "送": 3109,
      "适": 3110,
      "逆": 3111,
      "這": 3112,
      "通": 3113,
      "造": 3114,
      "連": 3115,
      "進": 3116,
      "逵": 3117,
      "逸": 3118,
      "逹": 3119,
      "遂": 3120,
      "遇": 3121,
      "遊": 3122,
      "遍": 3123,
      "過": 3124,
      "道": 3125,
      "達": 3126,
      "遙": 3127,
      "遜": 3128,
      "遠": 3129,
      "適": 3130,
      "遲": 3131,
      "遵": 3132,
      "選": 3133,
      "遺": 3134,
      "還": 3135,
      "邊": 3136,
      "邕": 3137,
      "邢": 3138,
      "那": 3139,
      "邦": 3140,
      "邱": 3141,
      "郈": 3142,
      "郡": 3143,
      "郢": 3144,
      "郭": 3145,
      "郯": 3146,
      "郰": 3147,
      "都": 3148,
      "鄉": 3149,
      "鄒": 3150,
      "鄔": 3151,
      "鄡": 3152,
      "鄧": 3153,
      "鄭": 3154,
      "鄱": 3155,
      "鄹": 3156,
      "醫": 3157,
      "釀": 3158,
      "釋": 3159,
      "里": 3160,
      "重": 3161,
      "野": 3162,
      "量": 3163,
      "釐": 3164,
      "金": 3165,
      "鉤": 3166,
      "銀": 3167,
      "鋪": 3168,
      "錄": 3169,
      "錫": 3170,
      "錯": 3171,
      "鍇": 3172,
      "鍊": 3173,
      "鎮": 3174,
      "鏡": 3175,
      "鐫": 3176,
      "鑑": 3177,
      "鑪": 3178,
      "長": 3179,
      "門": 3180,
      "閂": 3181,
      "開": 3182,
      "間": 3183,
      "閔": 3184,
      "閻": 3185,
      "關": 3186,
      "阬": 3187,
      "阮": 3188,
      "防": 3189,
      "阻": 3190,
      "阿": 3191,
      "陀": 3192,
      "附": 3193,
      "陋": 3194,
      "陜": 3195,
      "陞": 3196,
      "院": 3197,
      "除": 3198,
      "陬": 3199,
      "陰": 3200,
      "陳": 3201,
      "陶": 3202,
      "陸": 3203,
      "陽": 3204,
      "隆": 3205,
      "隋": 3206,
      "際": 3207,
      "隨": 3208,
      "險": 3209,
      "隻": 3210,
      "雄": 3211,
      "雅": 3212,
      "集": 3213,
      "雍": 3214,
      "雕": 3215,
      "雖": 3216,
      "雚": 3217,
      "雜": 3218,
      "雞": 3219,
      "離": 3220,
      "難": 3221,
      "雲": 3222,
      "零": 3223,
      "雷": 3224,
      "電": 3225,
      "霖": 3226,
      "霞": 3227,
      "霸": 3228,
      "靈": 3229,
      "靑": 3230,
      "青": 3231,
      "靖": 3232,
      "非": 3233,
      "靡": 3234,
      "面": 3235,
      "革": 3236,
      "鞫": 3237,
      "韋": 3238,
      "音": 3239,
      "韻": 3240,
      "頂": 3241,
      "順": 3242,
      "須": 3243,
      "頌": 3244,
      "領": 3245,
      "頤": 3246,
      "頭": 3247,
      "顏": 3248,
      "顒": 3249,
      "顓": 3250,
      "顗": 3251,
      "願": 3252,
      "類": 3253,
      "顥": 3254,
      "顧": 3255,
      "顯": 3256,
      "風": 3257,
      "飛": 3258,
      "食": 3259,
      "飯": 3260,
      "飲": 3261,
      "餉": 3262,
      "養": 3263,
      "餓": 3264,
      "餕": 3265,
      "餘": 3266,
      "饋": 3267,
      "饌": 3268,
      "饗": 3269,
      "首": 3270,
      "香": 3271,
      "馬": 3272,
      "駐": 3273,
      "駙": 3274,
      "駟": 3275,
      "騎": 3276,
      "騫": 3277,
      "驕": 3278,
      "驛": 3279,
      "體": 3280,
      "高": 3281,
      "鬧": 3282,
      "鬬": 3283,
      "魏": 3284,
      "魚": 3285,
      "魯": 3286,
      "魴": 3287,
      "鮒": 3288,
      "鯉": 3289,
      "鱣": 3290,
      "鳥": 3291,
      "鳳": 3292,
      "鳴": 3293,
      "鴉": 3294,
      "鴨": 3295,
      "鷄": 3296,
      "鹿": 3297,
      "麗": 3298,
      "麼": 3299,
      "黃": 3300,
      "黄": 3301,
      "黍": 3302,
      "黑": 3303,
      "點": 3304,
      "黨": 3305,
      "鼓": 3306,
      "齊": 3307,
      "齋": 3308,
      "齒": 3309,
      "齡": 3310,
      "龍": 3311,
      "龜": 3312,
      "ꝉ": 3313,
      "ꝏ": 3314,
      "Ꝑ": 3315,
      "ꝑ": 3316,
      "ꝓ": 3317,
      "ꝕ": 3318,
      "Ꝝ": 3319,
      "ꝟ": 3320,
      "ꝥ": 3321,
      "ꝫ": 3322,
      "Ꝭ": 3323,
      "ꝭ": 3324,
      "ꝰ": 3325,
      "ꝶ": 3326,
      "Ꝺ": 3327,
      "ꝺ": 3328,
      "Ꝼ": 3329,
      "ꝼ": 3330,
      "Ᵹ": 3331,
      "ꞃ": 3332,
      "ꞅ": 3333,
      "Ꞇ": 3334,
      "ꞇ": 3335,
      "ꟼ": 3336,
      "ꟽ": 3337,
      "益": 3338,
      "神": 3339,
      "社": 3340,
      "者": 3341,
      "ﬀ": 3342,
      "ﬁ": 3343,
      "ﬂ": 3344,
      "ﬃ": 3345,
      "ﬄ": 3346,
      "ﬅ": 3347,
      "ﬡ": 3348,
      "ﬣ": 3349,
      "ﬤ": 3350,
      "ﬥ": 3351,
      "ﬦ": 3352,
      "ﬨ": 3353,
      "שׁ": 3354,
      "שׂ": 3355,
      "בּ": 3356,
      "גּ": 3357,
      "וּ": 3358,
      "יּ": 3359,
      "כּ": 3360,
      "פּ": 3361,
      "וֹ": 3362,
      "ﭘ": 3363,
      "︶": 3364,
      "︷": 3365,
      "ﺍ": 3366,
      "ﺎ": 3367,
      "ﺏ": 3368,
      "ﺑ": 3369,
      "ﺕ": 3370,
      "ﺖ": 3371,
      "ﺗ": 3372,
      "ﺘ": 3373,
      "ﺙ": 3374,
      "ﺛ": 3375,
      "ﺜ": 3376,
      "ﺝ": 3377,
      "ﺡ": 3378,
      "ﺣ": 3379,
      "ﺥ": 3380,
      "ﺨ": 3381,
      "ﺩ": 3382,
      "ﺪ": 3383,
      "ﺫ": 3384,
      "ﺭ": 3385,
      "ﺮ": 3386,
      "ﺯ": 3387,
      "ﺰ": 3388,
      "ﺳ": 3389,
      "ﺴ": 3390,
      "ﺸ": 3391,
      "ﻊ": 3392,
      "ﻎ": 3393,
      "ﻒ": 3394,
      "ﻛ": 3395,
      "ﻜ": 3396,
      "ﻝ": 3397,
      "ﻟ": 3398,
      "ﻢ": 3399,
      "ﻣ": 3400,
      "ﻥ": 3401,
      "ﻦ": 3402,
      "ﻧ": 3403,
      "ﻨ": 3404,
      "ﻩ": 3405,
      "ﻪ": 3406,
      "ﻭ": 3407,
      "ﻮ": 3408,
      "ﻱ": 3409,
      "ﻳ": 3410,
      "﻿": 3411,
      "！": 3412,
      "＊": 3413,
      "＋": 3414,
      "，": 3415,
      "－": 3416,
      "：": 3417,
      "；": 3418,
      "＜": 3419,
      "＝": 3420,
      "＞": 3421,
      "Ｔ": 3422,
      "Ｖ": 3423,
      "�": 3424,
      "𐅵": 3425,
      "𓎆": 3426,
      "𝔷": 3427,
      "𝝘": 3428,
      "𝝩": 3429,
      "🂡": 3430,
      "🂢": 3431,
      "🂣": 3432,
      "🂤": 3433,
      "🂥": 3434,
      "🂦": 3435,
      "🂧": 3436,
      "🂨": 3437,
      "🂩": 3438,
      "🂪": 3439,
      "🂫": 3440,
      "🂭": 3441,
      "🂮": 3442,
      "🂱": 3443,
      "🂲": 3444,
      "🂳": 3445,
      "🂴": 3446,
      "🂵": 3447,
      "🂶": 3448,
      "🂷": 3449,
      "🂸": 3450,
      "🂹": 3451,
      "🂺": 3452,
      "🂻": 3453,
      "🂽": 3454,
      "🂾": 3455,
      "🃁": 3456,
      "🃂": 3457,
      "🃃": 3458,
      "🃄": 3459,
      "🃅": 3460,
      "🃆": 3461,
      "🃇": 3462,
      "🃈": 3463,
      "🃉": 3464,
      "🃊": 3465,
      "🃋": 3466,
      "🃍": 3467,
      "🃎": 3468,
      "🃑": 3469,
      "🃒": 3470,
      "🃓": 3471,
      "🃔": 3472,
      "🃕": 3473,
      "🃖": 3474,
      "🃗": 3475,
      "🃘": 3476,
      "🃙": 3477,
      "🃚": 3478,
      "🃛": 3479,
      "🃝": 3480,
      "🃞": 3481,
      "🌚": 3482,
      "🌛": 3483,
      "🌜": 3484,
      "🌝": 3485,
      "👉": 3486,
      "🖙": 3487,
      "🖛": 3488,
      "🜚": 3489,
      "🜨": 3490,
      "𡨴": 3491,
      "th": 3492,
      "the": 3493,
      "in": 3494,
      "an": 3495,
      "er": 3496,
      "on": 3497,
      "re": 3498,
      "en": 3499,
      "at": 3500,
      "ou": 3501,
      "ed": 3502,
      "of": 3503,
      "is": 3504,
      "and": 3505,
      "to": 3506,
      "as": 3507,
      "or": 3508,
      "es": 3509,
      "ar": 3510,
      "ing": 3511,
      "al": 3512,
      "it": 3513,
      "he": 3514,
      "le": 3515,
      "st": 3516,
      "ch": 3517,
      "se": 3518,
      "om": 3519,
      "be": 3520,
      "ad": 3521,
      "wh": 3522,
      "ly": 3523,
      "no": 3524,
      "ion": 3525,
      "ll": 3526,
      "ce": 3527,
      "ent": 3528,
      "wi": 3529,
      "ve": 3530,
      "im": 3531,
      "that": 3532,
      "ld": 3533,
      "id": 3534,
      "gh": 3535,
      "for": 3536,
      "was": 3537,
      "ro": 3538,
      "ver": 3539,
      "ut": 3540,
      "ir": 3541,
      "li": 3542,
      "am": 3543,
      "his": 3544,
      "ay": 3545,
      "ri": 3546,
      "ow": 3547,
      "with": 3548,
      "ter": 3549,
      "ac": 3550,
      "un": 3551,
      "--": 3552,
      "all": 3553,
      "ic": 3554,
      "you": 3555,
      "her": 3556,
      "ur": 3557,
      "ha": 3558,
      "de": 3559,
      "su": 3560,
      "not": 3561,
      "ght": 3562,
      "et": 3563,
      "The": 3564,
      "ab": 3565,
      "ther": 3566,
      "had": 3567,
      "ag": 3568,
      "ain": 3569,
      "lo": 3570,
      "we": 3571,
      "us": 3572,
      "are": 3573,
      "con": 3574,
      "mo": 3575,
      "whi": 3576,
      "so": 3577,
      "ne": 3578,
      "ere": 3579,
      "po": 3580,
      "by": 3581,
      "pe": 3582,
      "ct": 3583,
      "sh": 3584,
      "ould": 3585,
      "me": 3586,
      "one": 3587,
      "fe": 3588,
      "ke": 3589,
      "ess": 3590,
      "il": 3591,
      "fr": 3592,
      "our": 3593,
      "nd": 3594,
      "which": 3595,
      "com": 3596,
      "out": 3597,
      "ul": 3598,
      "ation": 3599,
      "est": 3600,
      "res": 3601,
      "od": 3602,
      "per": 3603,
      "him": 3604,
      "qu": 3605,
      "man": 3606,
      "ex": 3607,
      "have": 3608,
      "but": 3609,
      "up": 3610,
      "from": 3611,
      "ap": 3612,
      "tr": 3613,
      "if": 3614,
      "sa": 3615,
      "te": 3616,
      "my": 3617,
      "ard": 3618,
      "this": 3619,
      "ant": 3620,
      "go": 3621,
      "ous": 3622,
      "were": 3623,
      "pl": 3624,
      "she": 3625,
      "art": 3626,
      "they": 3627,
      "fo": 3628,
      "who": 3629,
      "ate": 3630,
      "end": 3631,
      "ill": 3632,
      "do": 3633,
      "co": 3634,
      "ind": 3635,
      "now": 3636,
      "pro": 3637,
      "ust": 3638,
      "ome": 3639,
      ".\"": 3640,
      "ist": 3641,
      "ge": 3642,
      "their": 3643,
      "ong": 3644,
      "ers": 3645,
      "ast": 3646,
      "wor": 3647,
      "ame": 3648,
      "them": 3649,
      "ish": 3650,
      "very": 3651,
      "sel": 3652,
      "ra": 3653,
      "ment": 3654,
      "ound": 3655,
      "ight": 3656,
      "op": 3657,
      "pr": 3658,
      "ig": 3659,
      "ity": 3660,
      "ok": 3661,
      "der": 3662,
      "He": 3663,
      "red": 3664,
      "been": 3665,
      ",\"": 3666,
      "bo": 3667,
      "um": 3668,
      "ak": 3669,
      "other": 3670,
      "ive": 3671,
      "would": 3672,
      "ough": 3673,
      "there": 3674,
      "au": 3675,
      "ven": 3676,
      "said": 3677,
      "thing": 3678,
      "ie": 3679,
      "way": 3680,
      "ol": 3681,
      "em": 3682,
      "fa": 3683,
      "ci": 3684,
      "will": 3685,
      "some": 3686,
      "ence": 3687,
      "own": 3688,
      "ck": 3689,
      "reat": 3690,
      "ure": 3691,
      "ass": 3692,
      "It": 3693,
      "any": 3694,
      "ry": 3695,
      "ine": 3696,
      "oun": 3697,
      "able": 3698,
      "af": 3699,
      "itt": 3700,
      "Th": 3701,
      "tim": 3702,
      "when": 3703,
      "its": 3704,
      "ance": 3705,
      "ort": 3706,
      "self": 3707,
      "act": 3708,
      "ack": 3709,
      "cl": 3710,
      "more": 3711,
      "ear": 3712,
      "can": 3713,
      "el": 3714,
      "ho": 3715,
      "pos": 3716,
      "fore": 3717,
      "wo": 3718,
      "ies": 3719,
      "ans": 3720,
      "has": 3721,
      "ved": 3722,
      "ach": 3723,
      "age": 3724,
      "ake": 3725,
      "pt": 3726,
      "pres": 3727,
      "pre": 3728,
      "into": 3729,
      "dis": 3730,
      "bl": 3731,
      "here": 3732,
      "tain": 3733,
      "day": 3734,
      "ide": 3735,
      "gr": 3736,
      "know": 3737,
      "ally": 3738,
      "what": 3739,
      "ade": 3740,
      "than": 3741,
      "ite": 3742,
      "Wh": 3743,
      "ber": 3744,
      "over": 3745,
      "ep": 3746,
      "In": 3747,
      "ful": 3748,
      "ves": 3749,
      "sp": 3750,
      "could": 3751,
      "And": 3752,
      "part": 3753,
      "br": 3754,
      "gl": 3755,
      "ree": 3756,
      "urn": 3757,
      "ought": 3758,
      "time": 3759,
      "your": 3760,
      "ary": 3761,
      "row": 3762,
      "ions": 3763,
      "But": 3764,
      "ble": 3765,
      "ire": 3766,
      "ot": 3767,
      "str": 3768,
      "great": 3769,
      "ated": 3770,
      "upon": 3771,
      "int": 3772,
      "ice": 3773,
      "men": 3774,
      "si": 3775,
      "ty": 3776,
      "like": 3777,
      "Mr": 3778,
      "then": 3779,
      "ue": 3780,
      "most": 3781,
      "ple": 3782,
      "only": 3783,
      "ord": 3784,
      "fer": 3785,
      "ving": 3786,
      "pp": 3787,
      "ang": 3788,
      "about": 3789,
      "ittle": 3790,
      "ace": 3791,
      "fl": 3792,
      "after": 3793,
      "should": 3794,
      "ob": 3795,
      "see": 3796,
      "hand": 3797,
      "fir": 3798,
      "ud": 3799,
      "again": 3800,
      "form": 3801,
      "long": 3802,
      "little": 3803,
      "ose": 3804,
      "did": 3805,
      "ever": 3806,
      "Ch": 3807,
      "?\"": 3808,
      "spe": 3809,
      "two": 3810,
      "uch": 3811,
      "may": 3812,
      "made": 3813,
      "ser": 3814,
      "ink": 3815,
      "son": 3816,
      "say": 3817,
      "where": 3818,
      "des": 3819,
      "read": 3820,
      "sto": 3821,
      "mon": 3822,
      "ret": 3823,
      "well": 3824,
      "coun": 3825,
      "ward": 3826,
      "how": 3827,
      "look": 3828,
      "off": 3829,
      "sc": 3830,
      "ren": 3831,
      "come": 3832,
      "mar": 3833,
      "----": 3834,
      "under": 3835,
      "ious": 3836,
      "la": 3837,
      "less": 3838,
      "before": 3839,
      "these": 3840,
      "such": 3841,
      "old": 3842,
      "ness": 3843,
      "hi": 3844,
      "let": 3845,
      "good": 3846,
      "came": 3847,
      "must": 3848,
      "ise": 3849,
      "ath": 3850,
      "We": 3851,
      "att": 3852,
      "ign": 3853,
      "first": 3854,
      "much": 3855,
      "18": 3856,
      "new": 3857,
      "ER": 3858,
      "arm": 3859,
      "down": 3860,
      "llow": 3861,
      "inter": 3862,
      "ted": 3863,
      "light": 3864,
      "every": 3865,
      "thr": 3866,
      "ave": 3867,
      "bet": 3868,
      "ction": 3869,
      "ces": 3870,
      "ition": 3871,
      "ked": 3872,
      "even": 3873,
      "land": 3874,
      "orn": 3875,
      "ps": 3876,
      "St": 3877,
      "ater": 3878,
      "right": 3879,
      "av": 3880,
      "cc": 3881,
      "ild": 3882,
      "ef": 3883,
      "pass": 3884,
      "year": 3885,
      "tor": 3886,
      "She": 3887,
      "ey": 3888,
      "ings": 3889,
      "led": 3890,
      "ten": 3891,
      "never": 3892,
      "work": 3893,
      "!\"": 3894,
      "iv": 3895,
      "iss": 3896,
      "ian": 3897,
      "..": 3898,
      "mer": 3899,
      "ener": 3900,
      "went": 3901,
      "ced": 3902,
      "ily": 3903,
      "those": 3904,
      "du": 3905,
      "ick": 3906,
      "call": 3907,
      "many": 3908,
      "being": 3909,
      "je": 3910,
      "ried": 3911,
      "cour": 3912,
      "ations": 3913,
      "cer": 3914,
      "ts": 3915,
      "clo": 3916,
      "port": 3917,
      "through": 3918,
      "ouse": 3919,
      "might": 3920,
      "get": 3921,
      "ev": 3922,
      "think": 3923,
      "back": 3924,
      "ase": 3925,
      "cons": 3926,
      "found": 3927,
      "life": 3928,
      "ph": 3929,
      "ft": 3930,
      "sm": 3931,
      "ied": 3932,
      "head": 3933,
      "seem": 3934,
      "himself": 3935,
      "atter": 3936,
      "lic": 3937,
      "gi": 3938,
      "just": 3939,
      "You": 3940,
      "min": 3941,
      "This": 3942,
      "cont": 3943,
      "try": 3944,
      "cted": 3945,
      "ss": 3946,
      "ered": 3947,
      "word": 3948,
      "though": 3949,
      "thought": 3950,
      "shall": 3951,
      "cau": 3952,
      "car": 3953,
      "cr": 3954,
      "air": 3955,
      "ical": 3956,
      "same": 3957,
      "too": 3958,
      "make": 3959,
      "They": 3960,
      "There": 3961,
      "wr": 3962,
      "TH": 3963,
      "ens": 3964,
      "nat": 3965,
      "present": 3966,
      "und": 3967,
      "without": 3968,
      "reg": 3969,
      "fri": 3970,
      "night": 3971,
      "ond": 3972,
      "comp": 3973,
      "sub": 3974,
      "place": 3975,
      "ress": 3976,
      "les": 3977,
      "last": 3978,
      "appe": 3979,
      "ub": 3980,
      "gu": 3981,
      "dist": 3982,
      "ran": 3983,
      "ith": 3984,
      "king": 3985,
      "side": 3986,
      "while": 3987,
      "ia": 3988,
      "No": 3989,
      "bro": 3990,
      "put": 3991,
      "beg": 3992,
      "ip": 3993,
      "iz": 3994,
      "comm": 3995,
      "ished": 3996,
      "ng": 3997,
      "ared": 3998,
      "ople": 3999,
      "ars": 4000,
      "set": 4001,
      "unt": 4002,
      "stand": 4003,
      "ower": 4004,
      "house": 4005,
      "tak": 4006,
      "press": 4007,
      "med": 4008,
      "vo": 4009,
      "tem": 4010,
      "wom": 4011,
      "den": 4012,
      "still": 4013,
      "dif": 4014,
      "cess": 4015,
      "ks": 4016,
      "cent": 4017,
      "cause": 4018,
      "tell": 4019,
      "En": 4020,
      "sur": 4021,
      "away": 4022,
      "take": 4023,
      "col": 4024,
      "00": 4025,
      "turn": 4026,
      "people": 4027,
      "ial": 4028,
      "lt": 4029,
      "cle": 4030,
      "ors": 4031,
      "lie": 4032,
      "rem": 4033,
      "friend": 4034,
      "ner": 4035,
      "ened": 4036,
      "ull": 4037,
      "also": 4038,
      "pri": 4039,
      "char": 4040,
      "nor": 4041,
      "ject": 4042,
      "follow": 4043,
      "aw": 4044,
      "lar": 4045,
      "point": 4046,
      "ates": 4047,
      "face": 4048,
      "par": 4049,
      "bre": 4050,
      "used": 4051,
      "ile": 4052,
      "jo": 4053,
      "young": 4054,
      "RE": 4055,
      "val": 4056,
      "use": 4057,
      "heart": 4058,
      "child": 4059,
      "three": 4060,
      "ways": 4061,
      "ited": 4062,
      "fect": 4063,
      "years": 4064,
      "ince": 4065,
      "AL": 4066,
      "far": 4067,
      "eyes": 4068,
      "TER": 4069,
      "reas": 4070,
      "If": 4071,
      ".,": 4072,
      "cho": 4073,
      "bu": 4074,
      "ters": 4075,
      "cap": 4076,
      "add": 4077,
      "gener": 4078,
      "God": 4079,
      "fort": 4080,
      "fic": 4081,
      "An": 4082,
      "What": 4083,
      "room": 4084,
      "yet": 4085,
      "As": 4086,
      "Engl": 4087,
      "fin": 4088,
      "vis": 4089,
      "His": 4090,
      "near": 4091,
      "occ": 4092,
      "bod": 4093,
      "bed": 4094,
      "ning": 4095,
      "another": 4096,
      "hal": 4097,
      "ON": 4098,
      "cept": 4099,
      "mem": 4100,
      "cond": 4101,
      "against": 4102,
      "left": 4103,
      "once": 4104,
      "low": 4105,
      "ste": 4106,
      "kind": 4107,
      "give": 4108,
      "ently": 4109,
      "eng": 4110,
      "LE": 4111,
      "vers": 4112,
      "II": 4113,
      "To": 4114,
      "ular": 4115,
      "high": 4116,
      "ton": 4117,
      "ash": 4118,
      "AN": 4119,
      "ments": 4120,
      "ark": 4121,
      "ween": 4122,
      "certain": 4123,
      "love": 4124,
      "got": 4125,
      "each": 4126,
      "ult": 4127,
      "pa": 4128,
      "cy": 4129,
      "mind": 4130,
      "find": 4131,
      "When": 4132,
      "IN": 4133,
      "nothing": 4134,
      "ped": 4135,
      "ents": 4136,
      "happ": 4137,
      "ting": 4138,
      "few": 4139,
      "stru": 4140,
      "pur": 4141,
      "che": 4142,
      "Ar": 4143,
      "aut": 4144,
      "For": 4145,
      "rest": 4146,
      "father": 4147,
      "At": 4148,
      "world": 4149,
      "want": 4150,
      "tri": 4151,
      "took": 4152,
      "ail": 4153,
      "water": 4154,
      "between": 4155,
      "That": 4156,
      "augh": 4157,
      "ls": 4158,
      "called": 4159,
      "don": 4160,
      "ins": 4161,
      "ys": 4162,
      "ged": 4163,
      "rep": 4164,
      "17": 4165,
      "Then": 4166,
      "sol": 4167,
      "atch": 4168,
      "fact": 4169,
      "ange": 4170,
      "person": 4171,
      "Jo": 4172,
      "On": 4173,
      "saw": 4174,
      "vent": 4175,
      "ru": 4176,
      "name": 4177,
      "ures": 4178,
      "tal": 4179,
      "So": 4180,
      "sent": 4181,
      "wn": 4182,
      "THE": 4183,
      "order": 4184,
      "always": 4185,
      "ons": 4186,
      "serv": 4187,
      "war": 4188,
      "qui": 4189,
      "ene": 4190,
      "return": 4191,
      "als": 4192,
      "things": 4193,
      "ither": 4194,
      "acc": 4195,
      "country": 4196,
      "quest": 4197,
      "ush": 4198,
      "mom": 4199,
      "half": 4200,
      "ier": 4201,
      "care": 4202,
      "cover": 4203,
      "cu": 4204,
      "ew": 4205,
      "bit": 4206,
      "ready": 4207,
      ".”": 4208,
      "fam": 4209,
      "seen": 4210,
      "whole": 4211,
      "feel": 4212,
      "among": 4213,
      "course": 4214,
      "possi": 4215,
      "small": 4216,
      "num": 4217,
      "ma": 4218,
      "ised": 4219,
      "body": 4220,
      "sy": 4221,
      "Mar": 4222,
      "Be": 4223,
      "Fr": 4224,
      "ating": 4225,
      "ross": 4226,
      "Se": 4227,
      "sk": 4228,
      "round": 4229,
      "pose": 4230,
      "Mrs": 4231,
      "rown": 4232,
      "having": 4233,
      "iness": 4234,
      "won": 4235,
      "lad": 4236,
      "ended": 4237,
      "wa": 4238,
      "soon": 4239,
      "selves": 4240,
      "both": 4241,
      "rew": 4242,
      "spo": 4243,
      "home": 4244,
      "thy": 4245,
      "answ": 4246,
      "wards": 4247,
      "16": 4248,
      "sat": 4249,
      "aking": 4250,
      "whom": 4251,
      "uring": 4252,
      "aster": 4253,
      "pleas": 4254,
      "because": 4255,
      "mother": 4256,
      "sure": 4257,
      "cor": 4258,
      "done": 4259,
      "sou": 4260,
      "vi": 4261,
      "ext": 4262,
      "peri": 4263,
      "ship": 4264,
      "hel": 4265,
      "ale": 4266,
      "vol": 4267,
      "show": 4268,
      "consid": 4269,
      "pect": 4270,
      "15": 4271,
      "days": 4272,
      "tory": 4273,
      "looked": 4274,
      "power": 4275,
      "four": 4276,
      "cut": 4277,
      "hour": 4278,
      "),": 4279,
      "cal": 4280,
      "ca": 4281,
      "fre": 4282,
      "ities": 4283,
      "Chr": 4284,
      "told": 4285,
      "woman": 4286,
      "moment": 4287,
      "heard": 4288,
      "Br": 4289,
      "wind": 4290,
      "sil": 4291,
      "hold": 4292,
      "gg": 4293,
      "ants": 4294,
      "dr": 4295,
      "seemed": 4296,
      "going": 4297,
      "gir": 4298,
      ",--": 4299,
      "large": 4300,
      "ained": 4301,
      "lay": 4302,
      "cri": 4303,
      "ual": 4304,
      "Pr": 4305,
      "rel": 4306,
      "hard": 4307,
      "suf": 4308,
      "hor": 4309,
      "however": 4310,
      "dou": 4311,
      "ches": 4312,
      "10": 4313,
      "bar": 4314,
      "CH": 4315,
      "law": 4316,
      "better": 4317,
      "matter": 4318,
      "os": 4319,
      "asked": 4320,
      "cei": 4321,
      ".'": 4322,
      "sup": 4323,
      "inde": 4324,
      "Al": 4325,
      "belie": 4326,
      "ages": 4327,
      "interest": 4328,
      "taken": 4329,
      "sim": 4330,
      "gether": 4331,
      "spir": 4332,
      "ably": 4333,
      "given": 4334,
      ".--": 4335,
      "inc": 4336,
      "ately": 4337,
      "play": 4338,
      "together": 4339,
      "known": 4340,
      "inst": 4341,
      "app": 4342,
      "12": 4343,
      "lied": 4344,
      "sum": 4345,
      "fully": 4346,
      "ove": 4347,
      "dra": 4348,
      "ele": 4349,
      "sing": 4350,
      "words": 4351,
      "plac": 4352,
      "ict": 4353,
      "ield": 4354,
      "AR": 4355,
      "hands": 4356,
      "ned": 4357,
      "Lord": 4358,
      "Christ": 4359,
      "fair": 4360,
      "enough": 4361,
      "ont": 4362,
      "almost": 4363,
      "differ": 4364,
      "knew": 4365,
      "contin": 4366,
      "quite": 4367,
      "does": 4368,
      "xt": 4369,
      "adv": 4370,
      "ety": 4371,
      "thor": 4372,
      "posed": 4373,
      "sever": 4374,
      "ii": 4375,
      "open": 4376,
      "19": 4377,
      "conf": 4378,
      "Re": 4379,
      "beaut": 4380,
      "aim": 4381,
      "thus": 4382,
      "ory": 4383,
      "ung": 4384,
      "--------": 4385,
      "door": 4386,
      "ye": 4387,
      "ese": 4388,
      "hu": 4389,
      "ined": 4390,
      "mil": 4391,
      "best": 4392,
      "hn": 4393,
      "sha": 4394,
      "pain": 4395,
      "ustr": 4396,
      "ling": 4397,
      "How": 4398,
      "Ro": 4399,
      "until": 4400,
      "ceed": 4401,
      "fall": 4402,
      "cur": 4403,
      "gave": 4404,
      "position": 4405,
      "ze": 4406,
      "book": 4407,
      "ird": 4408,
      "something": 4409,
      "di": 4410,
      "sho": 4411,
      "igh": 4412,
      "dire": 4413,
      "urch": 4414,
      "gent": 4415,
      "De": 4416,
      ".]": 4417,
      "ances": 4418,
      ",”": 4419,
      "ley": 4420,
      "ather": 4421,
      "bus": 4422,
      "keep": 4423,
      "ison": 4424,
      "morn": 4425,
      "bur": 4426,
      "ute": 4427,
      "brought": 4428,
      "amp": 4429,
      "whose": 4430,
      "death": 4431,
      "haps": 4432,
      "bes": 4433,
      "possible": 4434,
      "sen": 4435,
      "full": 4436,
      "EN": 4437,
      "gra": 4438,
      "ched": 4439,
      "reach": 4440,
      "ream": 4441,
      "Miss": 4442,
      "Un": 4443,
      "ank": 4444,
      "John": 4445,
      "others": 4446,
      "ident": 4447,
      "hon": 4448,
      "que": 4449,
      "tru": 4450,
      "white": 4451,
      "My": 4452,
      "prom": 4453,
      "themselves": 4454,
      "necess": 4455,
      "itu": 4456,
      "var": 4457,
      "14": 4458,
      "blo": 4459,
      "Bo": 4460,
      "need": 4461,
      "morning": 4462,
      "case": 4463,
      "real": 4464,
      "whe": 4465,
      "met": 4466,
      "wal": 4467,
      "lit": 4468,
      "ery": 4469,
      "mean": 4470,
      "ief": 4471,
      "All": 4472,
      "OR": 4473,
      "aring": 4474,
      "cir": 4475,
      "13": 4476,
      "ken": 4477,
      "Ind": 4478,
      "ided": 4479,
      "ground": 4480,
      "often": 4481,
      "ific": 4482,
      "cannot": 4483,
      "poor": 4484,
      "charac": 4485,
      "undred": 4486,
      "ix": 4487,
      "feet": 4488,
      "Con": 4489,
      "wood": 4490,
      "oud": 4491,
      "till": 4492,
      "turned": 4493,
      "iew": 4494,
      "plain": 4495,
      "oney": 4496,
      "road": 4497,
      "ALL": 4498,
      "eas": 4499,
      "doub": 4500,
      "ides": 4501,
      "gy": 4502,
      "gre": 4503,
      "rather": 4504,
      "sun": 4505,
      "reason": 4506,
      "ask": 4507,
      "Oh": 4508,
      "Her": 4509,
      "state": 4510,
      "hundred": 4511,
      "ines": 4512,
      "since": 4513,
      "mis": 4514,
      "fire": 4515,
      "ians": 4516,
      ",'": 4517,
      "next": 4518,
      "ister": 4519,
      "LET": 4520,
      "town": 4521,
      "ets": 4522,
      "strong": 4523,
      "REE": 4524,
      "Com": 4525,
      "dark": 4526,
      "tom": 4527,
      "Sir": 4528,
      "produ": 4529,
      "With": 4530,
      "Do": 4531,
      "Le": 4532,
      "Of": 4533,
      "felt": 4534,
      "English": 4535,
      "ref": 4536,
      "ism": 4537,
      "above": 4538,
      "New": 4539,
      "began": 4540,
      "ired": 4541,
      "six": 4542,
      "ug": 4543,
      "true": 4544,
      "ceived": 4545,
      "ublic": 4546,
      "anger": 4547,
      "swe": 4548,
      "leg": 4549,
      "King": 4550,
      "run": 4551,
      "consider": 4552,
      "claim": 4553,
      "passed": 4554,
      "By": 4555,
      "adm": 4556,
      "SM": 4557,
      "says": 4558,
      "LETTER": 4559,
      "view": 4560,
      "soci": 4561,
      "count": 4562,
      "laugh": 4563,
      "lig": 4564,
      "ative": 4565,
      "Is": 4566,
      "myself": 4567,
      "wife": 4568,
      "{~": 4569,
      "~}": 4570,
      "Nor": 4571,
      "ution": 4572,
      "Now": 4573,
      "stood": 4574,
      "ster": 4575,
      "voice": 4576,
      "stri": 4577,
      "ient": 4578,
      "GREE": 4579,
      "outh": 4580,
      "second": 4581,
      "children": 4582,
      "iting": 4583,
      "member": 4584,
      "lect": 4585,
      "pped": 4586,
      "offic": 4587,
      "Well": 4588,
      "GREEK": 4589,
      "appear": 4590,
      "subject": 4591,
      "speak": 4592,
      "iled": 4593,
      "trans": 4594,
      "along": 4595,
      "pat": 4596,
      "short": 4597,
      "express": 4598,
      "Po": 4599,
      "held": 4600,
      "city": 4601,
      "Yes": 4602,
      "character": 4603,
      "ann": 4604,
      "line": 4605,
      "girl": 4606,
      "band": 4607,
      "arch": 4608,
      "means": 4609,
      ").": 4610,
      "boy": 4611,
      "ctor": 4612,
      "allow": 4613,
      "five": 4614,
      "ah": 4615,
      "sign": 4616,
      "continu": 4617,
      "SMALL": 4618,
      "pen": 4619,
      "hope": 4620,
      "ST": 4621,
      "general": 4622,
      "sess": 4623,
      "Amer": 4624,
      "plo": 4625,
      "fac": 4626,
      "iful": 4627,
      "succ": 4628,
      "money": 4629,
      "prin": 4630,
      "ames": 4631,
      "chief": 4632,
      "imes": 4633,
      "supp": 4634,
      "either": 4635,
      "az": 4636,
      "rench": 4637,
      "mor": 4638,
      "AP": 4639,
      "tempt": 4640,
      "dear": 4641,
      "during": 4642,
      "OF": 4643,
      "number": 4644,
      "question": 4645,
      "times": 4646,
      "Mo": 4647,
      "coming": 4648,
      "moun": 4649,
      "Americ": 4650,
      "close": 4651,
      "gentle": 4652,
      "ich": 4653,
      "sec": 4654,
      "div": 4655,
      "lear": 4656,
      "doubt": 4657,
      "ility": 4658,
      "believe": 4659,
      "within": 4660,
      "herself": 4661,
      "dest": 4662,
      "cus": 4663,
      "Ill": 4664,
      "dec": 4665,
      "One": 4666,
      "perhaps": 4667,
      "ane": 4668,
      "lead": 4669,
      "dri": 4670,
      "dom": 4671,
      "pret": 4672,
      "Par": 4673,
      "une": 4674,
      "Col": 4675,
      "ff": 4676,
      "hear": 4677,
      "aven": 4678,
      "ural": 4679,
      "anything": 4680,
      "fur": 4681,
      "jud": 4682,
      "hind": 4683,
      "sed": 4684,
      "meet": 4685,
      "wish": 4686,
      "illed": 4687,
      "proper": 4688,
      "black": 4689,
      "least": 4690,
      "mark": 4691,
      "covered": 4692,
      "human": 4693,
      "Pro": 4694,
      "Ger": 4695,
      "nature": 4696,
      "itself": 4697,
      "import": 4698,
      "arri": 4699,
      "success": 4700,
      "step": 4701,
      "ards": 4702,
      "alone": 4703,
      "gone": 4704,
      "appro": 4705,
      "dden": 4706,
      "ousand": 4707,
      "prof": 4708,
      "som": 4709,
      "Go": 4710,
      "effect": 4711,
      "wonder": 4712,
      "several": 4713,
      "sle": 4714,
      "indeed": 4715,
      "yed": 4716,
      "miss": 4717,
      "England": 4718,
      "possess": 4719,
      "already": 4720,
      "deep": 4721,
      "tained": 4722,
      "Will": 4723,
      "ones": 4724,
      "sea": 4725,
      "pal": 4726,
      "itted": 4727,
      "looking": 4728,
      "thousand": 4729,
      "bri": 4730,
      "note": 4731,
      "earth": 4732,
      "brother": 4733,
      "20": 4734,
      "therefore": 4735,
      "aged": 4736,
      "French": 4737,
      "ili": 4738,
      "sudden": 4739,
      "qual": 4740,
      "dead": 4741,
      "start": 4742,
      "author": 4743,
      "women": 4744,
      "public": 4745,
      "usu": 4746,
      "chool": 4747,
      "live": 4748,
      "dro": 4749,
      "command": 4750,
      "mot": 4751,
      "ists": 4752,
      "ris": 4753,
      "formed": 4754,
      "remain": 4755,
      "cried": 4756,
      "field": 4757,
      "ured": 4758,
      "spr": 4759,
      "thou": 4760,
      "ford": 4761,
      "comple": 4762,
      "watch": 4763,
      "arms": 4764,
      "letter": 4765,
      "prob": 4766,
      "aren": 4767,
      "anim": 4768,
      "Why": 4769,
      "Ma": 4770,
      "spirit": 4771,
      "respect": 4772,
      "ature": 4773,
      "ats": 4774,
      "Illustr": 4775,
      "mid": 4776,
      "common": 4777,
      "manner": 4778,
      "Af": 4779,
      "fav": 4780,
      "different": 4781,
      "leave": 4782,
      "ible": 4783,
      "gover": 4784,
      "clear": 4785,
      "pie": 4786,
      "ury": 4787,
      "mus": 4788,
      "AT": 4789,
      "stud": 4790,
      "became": 4791,
      "enter": 4792,
      "sound": 4793,
      "lled": 4794,
      "resu": 4795,
      "medi": 4796,
      "free": 4797,
      "ger": 4798,
      "ries": 4799,
      "wall": 4800,
      "ths": 4801,
      "friends": 4802,
      "~}{~": 4803,
      "aint": 4804,
      "become": 4805,
      "exam": 4806,
      "flo": 4807,
      "ying": 4808,
      "Pe": 4809,
      "help": 4810,
      "stead": 4811,
      "ES": 4812,
      "idence": 4813,
      "nment": 4814,
      "making": 4815,
      "por": 4816,
      "gar": 4817,
      "tern": 4818,
      "foot": 4819,
      "partic": 4820,
      "bring": 4821,
      "diffic": 4822,
      "whether": 4823,
      "tract": 4824,
      "occas": 4825,
      "Co": 4826,
      "fig": 4827,
      "replied": 4828,
      "Fo": 4829,
      "fellow": 4830,
      "rid": 4831,
      "25": 4832,
      "vil": 4833,
      "move": 4834,
      "wenty": 4835,
      "family": 4836,
      "ized": 4837,
      "regard": 4838,
      "except": 4839,
      "understand": 4840,
      "const": 4841,
      "lady": 4842,
      "flu": 4843,
      "appeared": 4844,
      "etimes": 4845,
      "uck": 4846,
      "cot": 4847,
      "gen": 4848,
      "fast": 4849,
      "list": 4850,
      "sold": 4851,
      "grow": 4852,
      "gold": 4853,
      "ending": 4854,
      "sal": 4855,
      "wel": 4856,
      "princi": 4857,
      "vic": 4858,
      "beautiful": 4859,
      "horse": 4860,
      "aid": 4861,
      "har": 4862,
      "pers": 4863,
      "mere": 4864,
      "fear": 4865,
      "fell": 4866,
      "After": 4867,
      "ime": 4868,
      "object": 4869,
      "lost": 4870,
      "answered": 4871,
      "cious": 4872,
      "tra": 4873,
      "why": 4874,
      "behind": 4875,
      "dem": 4876,
      "pract": 4877,
      "hy": 4878,
      "bey": 4879,
      "Ho": 4880,
      "comes": 4881,
      "....": 4882,
      "descri": 4883,
      "gn": 4884,
      "perfect": 4885,
      "io": 4886,
      "wise": 4887,
      "necessary": 4888,
      "fine": 4889,
      "cks": 4890,
      "orig": 4891,
      "kept": 4892,
      "received": 4893,
      "lea": 4894,
      "following": 4895,
      "business": 4896,
      "towards": 4897,
      "truth": 4898,
      "decl": 4899,
      "sor": 4900,
      "utter": 4901,
      "inv": 4902,
      "circ": 4903,
      "ention": 4904,
      "twenty": 4905,
      "ms": 4906,
      "These": 4907,
      "draw": 4908,
      "ording": 4909,
      "ago": 4910,
      "ows": 4911,
      "plan": 4912,
      "ament": 4913,
      "stre": 4914,
      "ham": 4915,
      "akes": 4916,
      "speci": 4917,
      "bers": 4918,
      "Ge": 4919,
      "wild": 4920,
      "mag": 4921,
      "remember": 4922,
      "blood": 4923,
      "quar": 4924,
      "Not": 4925,
      "school": 4926,
      "Li": 4927,
      "ney": 4928,
      "cast": 4929,
      "sequ": 4930,
      "inal": 4931,
      "around": 4932,
      "Char": 4933,
      "rious": 4934,
      "force": 4935,
      "compan": 4936,
      "master": 4937,
      "early": 4938,
      "uc": 4939,
      "ek": 4940,
      "exc": 4941,
      "account": 4942,
      "sight": 4943,
      "Car": 4944,
      "table": 4945,
      "sl": 4946,
      "din": 4947,
      "sort": 4948,
      "Illustration": 4949,
      "Per": 4950,
      "pon": 4951,
      "exist": 4952,
      "cross": 4953,
      "trou": 4954,
      "seems": 4955,
      "pay": 4956,
      "Lond": 4957,
      "river": 4958,
      "prov": 4959,
      "attle": 4960,
      "anged": 4961,
      "treat": 4962,
      "rap": 4963,
      "Cap": 4964,
      "Or": 4965,
      "test": 4966,
      "main": 4967,
      "Sp": 4968,
      "hur": 4969,
      "IL": 4970,
      "cold": 4971,
      "Dr": 4972,
      "post": 4973,
      "London": 4974,
      "sir": 4975,
      "Let": 4976,
      "begin": 4977,
      "really": 4978,
      "else": 4979,
      "24": 4980,
      "bra": 4981,
      "From": 4982,
      "ination": 4983,
      "quick": 4984,
      "past": 4985,
      "bor": 4986,
      "vel": 4987,
      "suffer": 4988,
      "cell": 4989,
      "itions": 4990,
      "30": 4991,
      "returned": 4992,
      "dress": 4993,
      "class": 4994,
      "ledge": 4995,
      "ges": 4996,
      "sem": 4997,
      "iment": 4998,
      "IS": 4999,
      "tro": 5000,
      "ius": 5001,
      "joy": 5002,
      "bad": 5003,
      "ax": 5004,
      "followed": 5005,
      "offer": 5006,
      "relig": 5007,
      "bly": 5008,
      "church": 5009,
      "ount": 5010,
      "change": 5011,
      "CHAP": 5012,
      "faith": 5013,
      "ually": 5014,
      "evening": 5015,
      "hus": 5016,
      "story": 5017,
      "answer": 5018,
      "natural": 5019,
      "later": 5020,
      "ences": 5021,
      "satis": 5022,
      "pend": 5023,
      "daugh": 5024,
      "occasion": 5025,
      "late": 5026,
      ".)": 5027,
      "AND": 5028,
      "cient": 5029,
      "Here": 5030,
      "Gr": 5031,
      "dut": 5032,
      "mist": 5033,
      "tle": 5034,
      "Brit": 5035,
      "rup": 5036,
      "fif": 5037,
      "hill": 5038,
      "lies": 5039,
      "soul": 5040,
      "cked": 5041,
      "itude": 5042,
      "ring": 5043,
      "thee": 5044,
      "carried": 5045,
      "miles": 5046,
      "happy": 5047,
      "tains": 5048,
      "represent": 5049,
      "placed": 5050,
      "front": 5051,
      "cas": 5052,
      "lim": 5053,
      "--\"": 5054,
      "eye": 5055,
      "wit": 5056,
      "sometimes": 5057,
      "forth": 5058,
      "def": 5059,
      "owers": 5060,
      "ony": 5061,
      "antly": 5062,
      "pu": 5063,
      "CHAPTER": 5064,
      "prison": 5065,
      "Don": 5066,
      "obser": 5067,
      "23": 5068,
      "ordin": 5069,
      "oft": 5070,
      "mur": 5071,
      "vill": 5072,
      "lab": 5073,
      "pet": 5074,
      "iously": 5075,
      "taking": 5076,
      "teen": 5077,
      "rich": 5078,
      "Fran": 5079,
      "eight": 5080,
      "party": 5081,
      "termin": 5082,
      "idea": 5083,
      "ga": 5084,
      "26": 5085,
      "Lo": 5086,
      "espe": 5087,
      "ics": 5088,
      "break": 5089,
      "pict": 5090,
      "nation": 5091,
      "build": 5092,
      "log": 5093,
      "11": 5094,
      "fan": 5095,
      "tre": 5096,
      "deal": 5097,
      "entire": 5098,
      "tou": 5099,
      "Ed": 5100,
      "particular": 5101,
      "org": 5102,
      "nearly": 5103,
      "ital": 5104,
      "leng": 5105,
      "quiet": 5106,
      "path": 5107,
      "angu": 5108,
      "Gener": 5109,
      "Some": 5110,
      "inct": 5111,
      "hum": 5112,
      "stone": 5113,
      "sense": 5114,
      "stem": 5115,
      "bert": 5116,
      "IC": 5117,
      "27": 5118,
      "continued": 5119,
      "rope": 5120,
      "husband": 5121,
      "na": 5122,
      "across": 5123,
      "ives": 5124,
      "ples": 5125,
      "former": 5126,
      "iam": 5127,
      "strange": 5128,
      "Me": 5129,
      "moved": 5130,
      "28": 5131,
      "Har": 5132,
      "burn": 5133,
      "ric": 5134,
      "further": 5135,
      "\u0000\u0000": 5136,
      "scar": 5137,
      "opin": 5138,
      "000": 5139,
      "itting": 5140,
      "Bar": 5141,
      "fle": 5142,
      "itten": 5143,
      "pul": 5144,
      "top": 5145,
      "yal": 5146,
      "pray": 5147,
      "ours": 5148,
      "company": 5149,
      "reached": 5150,
      "immedi": 5151,
      "uni": 5152,
      "purpose": 5153,
      "tend": 5154,
      "latter": 5155,
      "acqu": 5156,
      "heav": 5157,
      "cord": 5158,
      "Em": 5159,
      "alth": 5160,
      "shad": 5161,
      "Ex": 5162,
      "OM": 5163,
      "ilt": 5164,
      "sac": 5165,
      "terri": 5166,
      "carry": 5167,
      "concer": 5168,
      "smo": 5169,
      "See": 5170,
      "peace": 5171,
      "May": 5172,
      "forward": 5173,
      "amed": 5174,
      "longer": 5175,
      "hours": 5176,
      "action": 5177,
      "bled": 5178,
      "incl": 5179,
      "OU": 5180,
      "rose": 5181,
      "danger": 5182,
      "riage": 5183,
      "bear": 5184,
      "attempt": 5185,
      "Ad": 5186,
      "29": 5187,
      "ady": 5188,
      "priv": 5189,
      ".[": 5190,
      "General": 5191,
      "hair": 5192,
      "direct": 5193,
      "ert": 5194,
      "circum": 5195,
      "ler": 5196,
      "according": 5197,
      "imag": 5198,
      "influ": 5199,
      "habit": 5200,
      "secret": 5201,
      "Tr": 5202,
      "added": 5203,
      "court": 5204,
      "occup": 5205,
      "quired": 5206,
      "abl": 5207,
      "cre": 5208,
      "standing": 5209,
      "bird": 5210,
      "period": 5211,
      "tail": 5212,
      "grand": 5213,
      "ny": 5214,
      "rend": 5215,
      "claimed": 5216,
      "stren": 5217,
      "sleep": 5218,
      "III": 5219,
      "sw": 5220,
      "worth": 5221,
      "history": 5222,
      "proceed": 5223,
      "writ": 5224,
      "ices": 5225,
      "Can": 5226,
      "corn": 5227,
      "bound": 5228,
      "squ": 5229,
      "slow": 5230,
      "bs": 5231,
      "length": 5232,
      "ina": 5233,
      "thir": 5234,
      "surpr": 5235,
      "utes": 5236,
      "grap": 5237,
      "experi": 5238,
      "lying": 5239,
      "IT": 5240,
      "daughter": 5241,
      "emplo": 5242,
      "bot": 5243,
      "appoint": 5244,
      "velo": 5245,
      "big": 5246,
      "suffic": 5247,
      "ops": 5248,
      "mine": 5249,
      "creat": 5250,
      "feeling": 5251,
      "atic": 5252,
      "mouth": 5253,
      "spect": 5254,
      "cing": 5255,
      "France": 5256,
      "beyond": 5257,
      "irt": 5258,
      "talk": 5259,
      "mention": 5260,
      "ork": 5261,
      "glad": 5262,
      "Eu": 5263,
      "cry": 5264,
      "ING": 5265,
      "Qu": 5266,
      "Ju": 5267,
      "sym": 5268,
      "ified": 5269,
      "everything": 5270,
      "Am": 5271,
      "fight": 5272,
      "ously": 5273,
      "nar": 5274,
      "States": 5275,
      "Rom": 5276,
      "army": 5277,
      "dog": 5278,
      "sweet": 5279,
      "usion": 5280,
      "laid": 5281,
      "probably": 5282,
      "reco": 5283,
      "trave": 5284,
      "service": 5285,
      "iers": 5286,
      "parts": 5287,
      "knowledge": 5288,
      "streng": 5289,
      "died": 5290,
      "conne": 5291,
      "ingly": 5292,
      "stra": 5293,
      "spoke": 5294,
      "EL": 5295,
      "ggest": 5296,
      "although": 5297,
      "orge": 5298,
      "ceive": 5299,
      "dream": 5300,
      "oper": 5301,
      "jour": 5302,
      "a_": 5303,
      "especi": 5304,
      "ils": 5305,
      "polit": 5306,
      "tel": 5307,
      "suggest": 5308,
      "instru": 5309,
      "Bl": 5310,
      "complete": 5311,
      "Man": 5312,
      "written": 5313,
      "stay": 5314,
      "acy": 5315,
      "dle": 5316,
      "trust": 5317,
      "ben": 5318,
      "contr": 5319,
      "liber": 5320,
      "AM": 5321,
      "suddenly": 5322,
      "fresh": 5323,
      "bell": 5324,
      "living": 5325,
      "──": 5326,
      "bow": 5327,
      "race": 5328,
      "entered": 5329,
      "hood": 5330,
      "shi": 5331,
      "crow": 5332,
      "colle": 5333,
      "Christian": 5334,
      "pected": 5335,
      "delight": 5336,
      "belong": 5337,
      "distance": 5338,
      "Pl": 5339,
      "Mad": 5340,
      "Hen": 5341,
      "meas": 5342,
      "repe": 5343,
      "trees": 5344,
      "ends": 5345,
      "DW": 5346,
      "firm": 5347,
      "unity": 5348,
      "enemy": 5349,
      "neigh": 5350,
      "dev": 5351,
      "pretty": 5352,
      "saying": 5353,
      "Sh": 5354,
      "suppose": 5355,
      "boys": 5356,
      "portion": 5357,
      "circumst": 5358,
      "gard": 5359,
      "pi": 5360,
      "...": 5361,
      "attack": 5362,
      "American": 5363,
      "ban": 5364,
      "iling": 5365,
      "range": 5366,
      "Who": 5367,
      "cul": 5368,
      "establ": 5369,
      "bright": 5370,
      "Church": 5371,
      "lling": 5372,
      "ribut": 5373,
      "ivid": 5374,
      "attention": 5375,
      "boat": 5376,
      "mit": 5377,
      "greater": 5378,
      "pleasure": 5379,
      "ased": 5380,
      "occur": 5381,
      "board": 5382,
      "Captain": 5383,
      "Lady": 5384,
      "50": 5385,
      "loved": 5386,
      "none": 5387,
      "important": 5388,
      "ption": 5389,
      "paper": 5390,
      "William": 5391,
      "ded": 5392,
      "arent": 5393,
      "doing": 5394,
      "ror": 5395,
      "Gover": 5396,
      "condu": 5397,
      "prev": 5398,
      "==": 5399,
      "ixed": 5400,
      "especially": 5401,
      "ib": 5402,
      "Where": 5403,
      "system": 5404,
      "uel": 5405,
      "opened": 5406,
      "usual": 5407,
      "frequ": 5408,
      "slight": 5409,
      "gain": 5410,
      "approach": 5411,
      "lord": 5412,
      "green": 5413,
      "Du": 5414,
      "phi": 5415,
      "tors": 5416,
      "German": 5417,
      "born": 5418,
      "neither": 5419,
      "anced": 5420,
      "ordinary": 5421,
      "?”": 5422,
      "ushed": 5423,
      "gun": 5424,
      "heaven": 5425,
      "lands": 5426,
      "anx": 5427,
      "various": 5428,
      "ron": 5429,
      "difficult": 5430,
      "certainly": 5431,
      "cop": 5432,
      "toward": 5433,
      "IV": 5434,
      "ering": 5435,
      "organ": 5436,
      "super": 5437,
      "ency": 5438,
      "ging": 5439,
      "ening": 5440,
      "accept": 5441,
      "wound": 5442,
      "warm": 5443,
      "mal": 5444,
      "tori": 5445,
      "Europe": 5446,
      "langu": 5447,
      "comfort": 5448,
      "aul": 5449,
      "tree": 5450,
      "appearance": 5451,
      "van": 5452,
      "teach": 5453,
      "lived": 5454,
      "da": 5455,
      "determin": 5456,
      "mission": 5457,
      "consequ": 5458,
      "yes": 5459,
      "ising": 5460,
      "nest": 5461,
      "government": 5462,
      "third": 5463,
      "York": 5464,
      "recogn": 5465,
      "moder": 5466,
      "ference": 5467,
      "gentleman": 5468,
      "lip": 5469,
      "persons": 5470,
      "concl": 5471,
      "Gree": 5472,
      "sla": 5473,
      "marked": 5474,
      "filled": 5475,
      "ouses": 5476,
      "expected": 5477,
      "fortun": 5478,
      "equ": 5479,
      "generally": 5480,
      "chance": 5481,
      "idge": 5482,
      "pit": 5483,
      "Ab": 5484,
      "pot": 5485,
      "hors": 5486,
      "ively": 5487,
      "places": 5488,
      "lief": 5489,
      "resol": 5490,
      "ager": 5491,
      "piece": 5492,
      "seven": 5493,
      "hast": 5494,
      "opinion": 5495,
      "duty": 5496,
      "support": 5497,
      "remained": 5498,
      "demand": 5499,
      "blue": 5500,
      "George": 5501,
      "broken": 5502,
      "makes": 5503,
      "Mon": 5504,
      "motion": 5505,
      "desp": 5506,
      "XX": 5507,
      "noon": 5508,
      "ION": 5509,
      "glass": 5510,
      "evil": 5511,
      "window": 5512,
      "die": 5513,
      "separ": 5514,
      "lin": 5515,
      "Mary": 5516,
      "OL": 5517,
      "ator": 5518,
      "condition": 5519,
      "scarce": 5520,
      "itary": 5521,
      "ically": 5522,
      "ply": 5523,
      "depart": 5524,
      "soft": 5525,
      "fut": 5526,
      "battle": 5527,
      "British": 5528,
      "lot": 5529,
      "atever": 5530,
      "ED": 5531,
      "lips": 5532,
      "giving": 5533,
      "chair": 5534,
      "poet": 5535,
      "office": 5536,
      "prove": 5537,
      "affe": 5538,
      "tee": 5539,
      "40": 5540,
      "cience": 5541,
      "wide": 5542,
      "Que": 5543,
      "strength": 5544,
      "tried": 5545,
      "easy": 5546,
      "prote": 5547,
      "lines": 5548,
      "report": 5549,
      "minutes": 5550,
      "horses": 5551,
      "fish": 5552,
      "sin": 5553,
      "_S": 5554,
      "ues": 5555,
      "raised": 5556,
      "conv": 5557,
      "drew": 5558,
      "gri": 5559,
      "conscious": 5560,
      "heavy": 5561,
      "remark": 5562,
      "ishment": 5563,
      "Tom": 5564,
      "Paris": 5565,
      "grace": 5566,
      "phe": 5567,
      "viol": 5568,
      "rock": 5569,
      "months": 5570,
      "ilar": 5571,
      "guard": 5572,
      "Gu": 5573,
      "affair": 5574,
      "thod": 5575,
      "Ber": 5576,
      "weak": 5577,
      "immediately": 5578,
      "train": 5579,
      "thick": 5580,
      "didn": 5581,
      "books": 5582,
      "below": 5583,
      "Pres": 5584,
      "mass": 5585,
      "sister": 5586,
      "fat": 5587,
      "influence": 5588,
      "assu": 5589,
      "ior": 5590,
      "alt": 5591,
      "22": 5592,
      "result": 5593,
      "afterwards": 5594,
      "north": 5595,
      "AS": 5596,
      "vari": 5597,
      "thern": 5598,
      "hop": 5599,
      "OT": 5600,
      "ses": 5601,
      "god": 5602,
      "expect": 5603,
      "single": 5604,
      "century": 5605,
      "iron": 5606,
      "desire": 5607,
      "charge": 5608,
      "isted": 5609,
      "formation": 5610,
      "wrong": 5611,
      "cost": 5612,
      "?'": 5613,
      "wanted": 5614,
      ".=": 5615,
      "agree": 5616,
      "letters": 5617,
      "prep": 5618,
      "develo": 5619,
      "ech": 5620,
      "mater": 5621,
      "beauty": 5622,
      "pond": 5623,
      "impress": 5624,
      "favour": 5625,
      "gress": 5626,
      "mad": 5627,
      "jest": 5628,
      "forms": 5629,
      "works": 5630,
      "spring": 5631,
      "trouble": 5632,
      "jor": 5633,
      "36": 5634,
      "convers": 5635,
      "compl": 5636,
      "allowed": 5637,
      "Ital": 5638,
      "week": 5639,
      "Cor": 5640,
      "exclaimed": 5641,
      "sole": 5642,
      "furn": 5643,
      "Lu": 5644,
      "hardly": 5645,
      "save": 5646,
      "camp": 5647,
      "suc": 5648,
      "famili": 5649,
      "Foot": 5650,
      "ancient": 5651,
      "dy": 5652,
      "ctions": 5653,
      "advant": 5654,
      "houses": 5655,
      "ball": 5656,
      "alter": 5657,
      "Jack": 5658,
      "hung": 5659,
      "mas": 5660,
      "aded": 5661,
      "stream": 5662,
      "exact": 5663,
      "succeed": 5664,
      "seas": 5665,
      "ussi": 5666,
      "rapid": 5667,
      "send": 5668,
      "eks": 5669,
      "bid": 5670,
      "ote": 5671,
      "----------------": 5672,
      "ision": 5673,
      "safe": 5674,
      "loss": 5675,
      "changed": 5676,
      "ns": 5677,
      "vessel": 5678,
      "visit": 5679,
      "35": 5680,
      "ense": 5681,
      "186": 5682,
      "spl": 5683,
      "passion": 5684,
      "gin": 5685,
      "presence": 5686,
      "situ": 5687,
      "mill": 5688,
      "itution": 5689,
      "ta": 5690,
      "pun": 5691,
      "grave": 5692,
      "whis": 5693,
      "fun": 5694,
      "noble": 5695,
      "Thus": 5696,
      "yourself": 5697,
      "Cl": 5698,
      "bour": 5699,
      "Scot": 5700,
      "youth": 5701,
      "aces": 5702,
      "comb": 5703,
      "deg": 5704,
      "food": 5705,
      "rent": 5706,
      "liz": 5707,
      "net": 5708,
      "host": 5709,
      "rote": 5710,
      "eat": 5711,
      "future": 5712,
      "win": 5713,
      "address": 5714,
      "verse": 5715,
      "fing": 5716,
      "liter": 5717,
      "impossible": 5718,
      "paid": 5719,
      "wed": 5720,
      "bling": 5721,
      "onel": 5722,
      "instead": 5723,
      "sett": 5724,
      "getting": 5725,
      "pound": 5726,
      "fool": 5727,
      "easily": 5728,
      "intro": 5729,
      "Ne": 5730,
      "Henry": 5731,
      "hot": 5732,
      "RO": 5733,
      "moral": 5734,
      "beginning": 5735,
      "Indian": 5736,
      "deli": 5737,
      "individ": 5738,
      "oted": 5739,
      "shot": 5740,
      "Fe": 5741,
      "ae": 5742,
      "ining": 5743,
      "temper": 5744,
      "itable": 5745,
      "IG": 5746,
      "clock": 5747,
      "arrived": 5748,
      "sion": 5749,
      "simple": 5750,
      "street": 5751,
      "happened": 5752,
      "ching": 5753,
      "silence": 5754,
      "introdu": 5755,
      "shar": 5756,
      "ali": 5757,
      "somewhat": 5758,
      "pursu": 5759,
      "commun": 5760,
      "entirely": 5761,
      "loso": 5762,
      "closed": 5763,
      "cases": 5764,
      "ni": 5765,
      "wrote": 5766,
      "Ste": 5767,
      "direction": 5768,
      "deed": 5769,
      "south": 5770,
      "drawn": 5771,
      "mir": 5772,
      "House": 5773,
      "smile": 5774,
      "West": 5775,
      "figure": 5776,
      "37": 5777,
      "Yet": 5778,
      "aste": 5779,
      "proved": 5780,
      "struck": 5781,
      "34": 5782,
      "State": 5783,
      "Footnote": 5784,
      "ald": 5785,
      "married": 5786,
      "drink": 5787,
      ":--": 5788,
      "bles": 5789,
      "Charles": 5790,
      "itation": 5791,
      "ulty": 5792,
      "mort": 5793,
      "Every": 5794,
      "admir": 5795,
      "liar": 5796,
      "cil": 5797,
      "thinking": 5798,
      "meant": 5799,
      "profess": 5800,
      "west": 5801,
      "courage": 5802,
      "prevent": 5803,
      "rough": 5804,
      "hat": 5805,
      "Our": 5806,
      "village": 5807,
      "iden": 5808,
      "seeing": 5809,
      "considered": 5810,
      "Ah": 5811,
      "ize": 5812,
      "fol": 5813,
      "thes": 5814,
      "pleasant": 5815,
      "ume": 5816,
      "Lou": 5817,
      "tic": 5818,
      "honour": 5819,
      "arr": 5820,
      "merely": 5821,
      "susp": 5822,
      "regular": 5823,
      "ape": 5824,
      "built": 5825,
      "__": 5826,
      "fash": 5827,
      "gall": 5828,
      "oured": 5829,
      "knows": 5830,
      "lower": 5831,
      "design": 5832,
      "whatever": 5833,
      "antic": 5834,
      "ises": 5835,
      "similar": 5836,
      "walk": 5837,
      "ming": 5838,
      "circumstances": 5839,
      "len": 5840,
      "throw": 5841,
      "learned": 5842,
      "mach": 5843,
      "bank": 5844,
      "fit": 5845,
      "music": 5846,
      "United": 5847,
      "cts": 5848,
      "aled": 5849,
      "summer": 5850,
      "ites": 5851,
      "owing": 5852,
      "North": 5853,
      "kne": 5854,
      "38": 5855,
      "dinner": 5856,
      "imp": 5857,
      "ding": 5858,
      "walked": 5859,
      "Aug": 5860,
      "lice": 5861,
      "rain": 5862,
      "tone": 5863,
      "print": 5864,
      "exp": 5865,
      "sick": 5866,
      "aries": 5867,
      "spot": 5868,
      "slowly": 5869,
      "sty": 5870,
      "equal": 5871,
      "respond": 5872,
      "trem": 5873,
      "fraid": 5874,
      "personal": 5875,
      "uses": 5876,
      "subst": 5877,
      "increas": 5878,
      "Span": 5879,
      "thoughts": 5880,
      "produced": 5881,
      "due": 5882,
      "straight": 5883,
      "cra": 5884,
      "bran": 5885,
      "aught": 5886,
      "material": 5887,
      "box": 5888,
      "experience": 5889,
      "grad": 5890,
      "fied": 5891,
      "broad": 5892,
      "bless": 5893,
      "original": 5894,
      "expression": 5895,
      "caught": 5896,
      "ump": 5897,
      "ingu": 5898,
      "officers": 5899,
      "culiar": 5900,
      "uit": 5901,
      "publ": 5902,
      "cloud": 5903,
      "worthy": 5904,
      "avo": 5905,
      "educ": 5906,
      "ience": 5907,
      "society": 5908,
      "priest": 5909,
      "South": 5910,
      "appre": 5911,
      "artic": 5912,
      "James": 5913,
      "amb": 5914,
      "issu": 5915,
      "Great": 5916,
      "orders": 5917,
      "started": 5918,
      "destro": 5919,
      "scarcely": 5920,
      "uded": 5921,
      "cou": 5922,
      "sad": 5923,
      "observed": 5924,
      "language": 5925,
      "afraid": 5926,
      "fashion": 5927,
      "value": 5928,
      "peculiar": 5929,
      "unders": 5930,
      "La": 5931,
      "Phi": 5932,
      "learn": 5933,
      "sail": 5934,
      "plant": 5935,
      "wait": 5936,
      "reme": 5937,
      "ishop": 5938,
      "gate": 5939,
      "39": 5940,
      "Queen": 5941,
      "greatest": 5942,
      "girls": 5943,
      "forgot": 5944,
      "process": 5945,
      "opport": 5946,
      "pread": 5947,
      "pure": 5948,
      "fal": 5949,
      "taining": 5950,
      "!'": 5951,
      "stor": 5952,
      "leaving": 5953,
      "thirty": 5954,
      "airs": 5955,
      "hall": 5956,
      "lu": 5957,
      "apparent": 5958,
      "gro": 5959,
      "!”": 5960,
      "Prince": 5961,
      "Good": 5962,
      "origin": 5963,
      "cit": 5964,
      "bel": 5965,
      "scene": 5966,
      "winter": 5967,
      "ral": 5968,
      "aff": 5969,
      "nal": 5970,
      "Jes": 5971,
      "SE": 5972,
      "doctor": 5973,
      "_C": 5974,
      "farm": 5975,
      "fortune": 5976,
      "capt": 5977,
      "Rich": 5978,
      "deser": 5979,
      "ferred": 5980,
      "phys": 5981,
      "AC": 5982,
      "surround": 5983,
      "absol": 5984,
      "usually": 5985,
      "Indians": 5986,
      "uous": 5987,
      "supposed": 5988,
      "hero": 5989,
      "tears": 5990,
      "walls": 5991,
      "quis": 5992,
      "Ph": 5993,
      "steps": 5994,
      "snow": 5995,
      "leaves": 5996,
      "sufficient": 5997,
      "preser": 5998,
      "showed": 5999,
      "quickly": 6000,
      "gives": 6001,
      "virt": 6002,
      "rate": 6003,
      "ishing": 6004,
      "custom": 6005,
      "DE": 6006,
      "21": 6007,
      "een": 6008,
      "sn": 6009,
      "appears": 6010,
      "flowers": 6011,
      "indic": 6012,
      "Their": 6013,
      "bon": 6014,
      "key": 6015,
      "write": 6016,
      "Thom": 6017,
      "exe": 6018,
      "method": 6019,
      "distingu": 6020,
      "tender": 6021,
      "hath": 6022,
      "unto": 6023,
      "desc": 6024,
      "graph": 6025,
      "mn": 6026,
      "chap": 6027,
      "lives": 6028,
      "dim": 6029,
      "middle": 6030,
      "exer": 6031,
      "ington": 6032,
      "numer": 6033,
      "uary": 6034,
      "grew": 6035,
      "sens": 6036,
      "Just": 6037,
      "shown": 6038,
      "stopped": 6039,
      "discovered": 6040,
      "apt": 6041,
      "obli": 6042,
      "outside": 6043,
      "64": 6044,
      "considerable": 6045,
      "iding": 6046,
      "narrow": 6047,
      "cab": 6048,
      "dry": 6049,
      "etc": 6050,
      "iced": 6051,
      "Roman": 6052,
      "187": 6053,
      "goes": 6054,
      "garden": 6055,
      "Rev": 6056,
      "188": 6057,
      "killed": 6058,
      "spread": 6059,
      "thin": 6060,
      "excell": 6061,
      "philoso": 6062,
      "likely": 6063,
      "assist": 6064,
      "ander": 6065,
      "justice": 6066,
      "mess": 6067,
      "laughed": 6068,
      "existence": 6069,
      "forest": 6070,
      "passing": 6071,
      "ende": 6072,
      "rise": 6073,
      "marriage": 6074,
      "soldiers": 6075,
      "curious": 6076,
      "itch": 6077,
      "thro": 6078,
      "fixed": 6079,
      "finite": 6080,
      "glo": 6081,
      "oppos": 6082,
      "record": 6083,
      "mentioned": 6084,
      "mountain": 6085,
      "troops": 6086,
      "picture": 6087,
      "ague": 6088,
      "ached": 6089,
      "modern": 6090,
      "Come": 6091,
      "America": 6092,
      "189": 6093,
      "bread": 6094,
      "apo": 6095,
      "TO": 6096,
      "cise": 6097,
      "crit": 6098,
      "property": 6099,
      "pressed": 6100,
      "Rome": 6101,
      "determined": 6102,
      "trad": 6103,
      "broke": 6104,
      "grat": 6105,
      "twel": 6106,
      "sky": 6107,
      "using": 6108,
      "Cour": 6109,
      "cape": 6110,
      "dread": 6111,
      "religion": 6112,
      "Father": 6113,
      "ore": 6114,
      "ships": 6115,
      "zz": 6116,
      "non": 6117,
      "Sy": 6118,
      "waiting": 6119,
      "special": 6120,
      "tellig": 6121,
      "rail": 6122,
      "uff": 6123,
      "distinct": 6124,
      "ENT": 6125,
      "Your": 6126,
      "gment": 6127,
      "private": 6128,
      "journey": 6129,
      "kes": 6130,
      "bility": 6131,
      "ots": 6132,
      "While": 6133,
      "content": 6134,
      "song": 6135,
      "fifty": 6136,
      "ti": 6137,
      "prepared": 6138,
      "speaking": 6139,
      "dep": 6140,
      "interesting": 6141,
      "laws": 6142,
      "Ear": 6143,
      "eager": 6144,
      "study": 6145,
      "edge": 6146,
      "Such": 6147,
      "authority": 6148,
      "quire": 6149,
      "ell": 6150,
      "ability": 6151,
      "Gre": 6152,
      "absolute": 6153,
      "Paul": 6154,
      "notice": 6155,
      "names": 6156,
      "floor": 6157,
      "confess": 6158,
      "rank": 6159,
      "tow": 6160,
      "cher": 6161,
      "swi": 6162,
      "grou": 6163,
      "itive": 6164,
      "War": 6165,
      "Mor": 6166,
      "unless": 6167,
      "afternoon": 6168,
      "conce": 6169,
      "native": 6170,
      "ordered": 6171,
      "cket": 6172,
      "oth": 6173,
      "eneath": 6174,
      "ables": 6175,
      "sitting": 6176,
      "ays": 6177,
      "sand": 6178,
      "pop": 6179,
      "ears": 6180,
      "breath": 6181,
      "Dav": 6182,
      "zen": 6183,
      "lor": 6184,
      "_A": 6185,
      "alle": 6186,
      "doll": 6187,
      "scri": 6188,
      "decided": 6189,
      "raise": 6190,
      "writing": 6191,
      "Ser": 6192,
      "foreign": 6193,
      "reed": 6194,
      "ITH": 6195,
      "forget": 6196,
      "favor": 6197,
      "contro": 6198,
      "species": 6199,
      "sides": 6200,
      "clim": 6201,
      "building": 6202,
      "surface": 6203,
      "news": 6204,
      "RI": 6205,
      "sul": 6206,
      "reading": 6207,
      "ignor": 6208,
      "lean": 6209,
      "religious": 6210,
      "Even": 6211,
      "extreme": 6212,
      "declared": 6213,
      "asp": 6214,
      "passage": 6215,
      "istic": 6216,
      "pping": 6217,
      "twi": 6218,
      "moon": 6219,
      "conversation": 6220,
      "shore": 6221,
      "iff": 6222,
      "pull": 6223,
      "alo": 6224,
      "Sun": 6225,
      "kiss": 6226,
      "Min": 6227,
      "shout": 6228,
      "advantage": 6229,
      "revol": 6230,
      "Coun": 6231,
      "bitter": 6232,
      "Government": 6233,
      "logy": 6234,
      "perfectly": 6235,
      "receive": 6236,
      "appointed": 6237,
      "intellig": 6238,
      "August": 6239,
      "armed": 6240,
      "conduct": 6241,
      "uten": 6242,
      "beside": 6243,
      "meeting": 6244,
      "escape": 6245,
      "murder": 6246,
      "silver": 6247,
      "ease": 6248,
      "whisper": 6249,
      "vain": 6250,
      "Cha": 6251,
      "possession": 6252,
      "bal": 6253,
      "execut": 6254,
      "ston": 6255,
      "degree": 6256,
      "silent": 6257,
      "afford": 6258,
      "cler": 6259,
      "difficulty": 6260,
      "Duke": 6261,
      "isto": 6262,
      "athe": 6263,
      "tood": 6264,
      "rad": 6265,
      "depend": 6266,
      "_The": 6267,
      "ium": 6268,
      "believed": 6269,
      "mber": 6270,
      "umph": 6271,
      "cand": 6272,
      "height": 6273,
      "wished": 6274,
      "amber": 6275,
      "minute": 6276,
      "attract": 6277,
      "cult": 6278,
      "bridge": 6279,
      "repeated": 6280,
      "coast": 6281,
      "tit": 6282,
      "morrow": 6283,
      "played": 6284,
      "bing": 6285,
      "rupt": 6286,
      "progress": 6287,
      "lif": 6288,
      "\u0000\u0000\u0000\u0000": 6289,
      "offered": 6290,
      "month": 6291,
      "brown": 6292,
      "communic": 6293,
      "detail": 6294,
      "minis": 6295,
      "members": 6296,
      "pan": 6297,
      "\"'": 6298,
      "witness": 6299,
      "peror": 6300,
      "45": 6301,
      "bul": 6302,
      "fail": 6303,
      "understood": 6304,
      "iles": 6305,
      "hol": 6306,
      "ladies": 6307,
      "stro": 6308,
      "please": 6309,
      "evidence": 6310,
      "speech": 6311,
      "pleased": 6312,
      "beat": 6313,
      "Dan": 6314,
      "neck": 6315,
      "rul": 6316,
      "sible": 6317,
      "promise": 6318,
      "hang": 6319,
      "feat": 6320,
      "ram": 6321,
      "search": 6322,
      "fles": 6323,
      "game": 6324,
      "island": 6325,
      "star": 6326,
      "185": 6327,
      "officer": 6328,
      "higher": 6329,
      "sit": 6330,
      "simply": 6331,
      "s_": 6332,
      "reck": 6333,
      "obtained": 6334,
      "discus": 6335,
      "wine": 6336,
      "_P": 6337,
      "aval": 6338,
      "example": 6339,
      "enn": 6340,
      "VI": 6341,
      "apart": 6342,
      "Russi": 6343,
      "beneath": 6344,
      "animal": 6345,
      "rows": 6346,
      "forced": 6347,
      "Old": 6348,
      "required": 6349,
      "rule": 6350,
      "sacri": 6351,
      "crowd": 6352,
      "rig": 6353,
      "kill": 6354,
      "Peter": 6355,
      "heads": 6356,
      "turning": 6357,
      "cred": 6358,
      "frequently": 6359,
      "fee": 6360,
      "drawing": 6361,
      "aston": 6362,
      "twelve": 6363,
      "weight": 6364,
      "joined": 6365,
      "asc": 6366,
      "reply": 6367,
      "captain": 6368,
      "GE": 6369,
      "corner": 6370,
      "hes": 6371,
      "aby": 6372,
      "rub": 6373,
      "AD": 6374,
      "aver": 6375,
      "neg": 6376,
      "dam": 6377,
      "Fig": 6378,
      "amount": 6379,
      "ains": 6380,
      "political": 6381,
      "fice": 6382,
      "yellow": 6383,
      "PH": 6384,
      "sell": 6385,
      "running": 6386,
      "Greek": 6387,
      "Mer": 6388,
      "arily": 6389,
      "Sam": 6390,
      "agon": 6391,
      "crown": 6392,
      "honest": 6393,
      "Bur": 6394,
      "matters": 6395,
      "va": 6396,
      "pale": 6397,
      "colour": 6398,
      "del": 6399,
      "pieces": 6400,
      "corre": 6401,
      "phy": 6402,
      "ires": 6403,
      "Cr": 6404,
      "fallen": 6405,
      "engaged": 6406,
      "iments": 6407,
      "calm": 6408,
      "Sm": 6409,
      "happiness": 6410,
      "Colonel": 6411,
      "terrible": 6412,
      "ama": 6413,
      "fold": 6414,
      "Jew": 6415,
      "east": 6416,
      "chan": 6417,
      "bir": 6418,
      "cles": 6419,
      "birds": 6420,
      "stret": 6421,
      "inj": 6422,
      "meaning": 6423,
      "Hu": 6424,
      "33": 6425,
      "Ri": 6426,
      "opportunity": 6427,
      "AU": 6428,
      "caused": 6429,
      "popular": 6430,
      "opposite": 6431,
      "iently": 6432,
      "stock": 6433,
      "steam": 6434,
      "fro": 6435,
      "ourselves": 6436,
      "bas": 6437,
      "cup": 6438,
      "ker": 6439,
      "instance": 6440,
      "clean": 6441,
      "idently": 6442,
      "serious": 6443,
      "rare": 6444,
      "adop": 6445,
      "bill": 6446,
      "extra": 6447,
      "sake": 6448,
      "IR": 6449,
      "space": 6450,
      "iii": 6451,
      "quir": 6452,
      "named": 6453,
      "resist": 6454,
      "individual": 6455,
      "tin": 6456,
      "cat": 6457,
      "intended": 6458,
      "Ha": 6459,
      "iant": 6460,
      "lan": 6461,
      "grass": 6462,
      "station": 6463,
      "thrown": 6464,
      "animals": 6465,
      "stop": 6466,
      "abs": 6467,
      "48": 6468,
      "olly": 6469,
      "health": 6470,
      "deliver": 6471,
      "ception": 6472,
      "splend": 6473,
      "observ": 6474,
      "described": 6475,
      "owed": 6476,
      "expl": 6477,
      "lected": 6478,
      "takes": 6479,
      "magn": 6480,
      "argu": 6481,
      "Ben": 6482,
      "trade": 6483,
      "quarter": 6484,
      "seat": 6485,
      "bold": 6486,
      "Thomas": 6487,
      "Jud": 6488,
      "spoken": 6489,
      "importance": 6490,
      "constru": 6491,
      "Frank": 6492,
      "inf": 6493,
      "Did": 6494,
      "honor": 6495,
      "male": 6496,
      "Two": 6497,
      "cro": 6498,
      "ET": 6499,
      "thered": 6500,
      "WITH": 6501,
      "spent": 6502,
      "190": 6503,
      "yer": 6504,
      "fright": 6505,
      "memory": 6506,
      "employed": 6507,
      "ville": 6508,
      "ounced": 6509,
      "touch": 6510,
      "surprise": 6511,
      "Perhaps": 6512,
      "pol": 6513,
      "fancy": 6514,
      "speed": 6515,
      "deb": 6516,
      "46": 6517,
      "cam": 6518,
      "upper": 6519,
      "fill": 6520,
      "charm": 6521,
      "proof": 6522,
      "ato": 6523,
      "holding": 6524,
      "ners": 6525,
      "Louis": 6526,
      "Jan": 6527,
      "itor": 6528,
      "47": 6529,
      "cial": 6530,
      "points": 6531,
      "size": 6532,
      "iction": 6533,
      "illustr": 6534,
      "forty": 6535,
      "tong": 6536,
      "develop": 6537,
      "spite": 6538,
      "military": 6539,
      "mountains": 6540,
      "jesty": 6541,
      "Never": 6542,
      "working": 6543,
      "vision": 6544,
      "reign": 6545,
      "xx": 6546,
      "prepar": 6547,
      "aters": 6548,
      "tur": 6549,
      "situation": 6550,
      "arrange": 6551,
      "royal": 6552,
      "trying": 6553,
      "wear": 6554,
      "Je": 6555,
      "greatly": 6556,
      "grant": 6557,
      "vast": 6558,
      "fare": 6559,
      "published": 6560,
      "eld": 6561,
      "benef": 6562,
      "affection": 6563,
      "finally": 6564,
      "false": 6565,
      "social": 6566,
      "cruel": 6567,
      "shut": 6568,
      "willing": 6569,
      "finished": 6570,
      "maid": 6571,
      "looks": 6572,
      "proud": 6573,
      "thorough": 6574,
      "Const": 6575,
      "occupied": 6576,
      "threat": 6577,
      "fier": 6578,
      "heat": 6579,
      "square": 6580,
      "Jer": 6581,
      "emp": 6582,
      "quant": 6583,
      "Ver": 6584,
      "burst": 6585,
      "familiar": 6586,
      "aced": 6587,
      "Fir": 6588,
      "marks": 6589,
      "chang": 6590,
      "earli": 6591,
      "threw": 6592,
      "bottom": 6593,
      "servant": 6594,
      "sharp": 6595,
      "mighty": 6596,
      "IA": 6597,
      "taste": 6598,
      "sav": 6599,
      "Madame": 6600,
      "attend": 6601,
      "rice": 6602,
      "measure": 6603,
      "cheer": 6604,
      "omin": 6605,
      "instant": 6606,
      "season": 6607,
      "accompl": 6608,
      "Ir": 6609,
      "els": 6610,
      "movement": 6611,
      "ox": 6612,
      "compar": 6613,
      "UR": 6614,
      "fruit": 6615,
      "wing": 6616,
      "lest": 6617,
      "capital": 6618,
      "nine": 6619,
      "famous": 6620,
      "conditions": 6621,
      "breast": 6622,
      "Im": 6623,
      "tu": 6624,
      "enjoy": 6625,
      "catch": 6626,
      "omen": 6627,
      "Egy": 6628,
      "companion": 6629,
      "wonderful": 6630,
      "information": 6631,
      "Jesus": 6632,
      "gif": 6633,
      "forts": 6634,
      "earnest": 6635,
      "rence": 6636,
      "unk": 6637,
      "lose": 6638,
      "lls": 6639,
      "Sha": 6640,
      "difference": 6641,
      "stir": 6642,
      "worse": 6643,
      "stairs": 6644,
      "empt": 6645,
      "presented": 6646,
      "uced": 6647,
      "perior": 6648,
      "marry": 6649,
      "inhabit": 6650,
      "coat": 6651,
      "Wor": 6652,
      "inn": 6653,
      "lod": 6654,
      "Vir": 6655,
      "Egypt": 6656,
      "March": 6657,
      "sword": 6658,
      "labor": 6659,
      "Tur": 6660,
      "affairs": 6661,
      "pictures": 6662,
      "carefully": 6663,
      "counter": 6664,
      "pher": 6665,
      "wis": 6666,
      "regarded": 6667,
      "US": 6668,
      "settled": 6669,
      "anti": 6670,
      "remains": 6671,
      "Wal": 6672,
      "event": 6673,
      "besides": 6674,
      "judge": 6675,
      "_M": 6676,
      "_s": 6677,
      "vation": 6678,
      "stage": 6679,
      "ify": 6680,
      "ternal": 6681,
      "wealth": 6682,
      "Cong": 6683,
      "49": 6684,
      "blind": 6685,
      "eper": 6686,
      "Dick": 6687,
      "weather": 6688,
      "citiz": 6689,
      "facts": 6690,
      "pack": 6691,
      "ias": 6692,
      "spec": 6693,
      "talking": 6694,
      "bits": 6695,
      "Ale": 6696,
      "ctr": 6697,
      "terms": 6698,
      "excellent": 6699,
      "obliged": 6700,
      "guess": 6701,
      "ino": 6702,
      "weeks": 6703,
      "minister": 6704,
      "uttered": 6705,
      "serve": 6706,
      "Fort": 6707,
      "Pal": 6708,
      "ause": 6709,
      "clothes": 6710,
      "brave": 6711,
      "anxious": 6712,
      "ission": 6713,
      "page": 6714,
      "wash": 6715,
      "delic": 6716,
      "Ru": 6717,
      "numerous": 6718,
      "Count": 6719,
      "remarkable": 6720,
      "associ": 6721,
      "LI": 6722,
      "June": 6723,
      "triumph": 6724,
      "feelings": 6725,
      "advent": 6726,
      "inches": 6727,
      "tall": 6728,
      "iter": 6729,
      "Stre": 6730,
      "correspond": 6731,
      "burg": 6732,
      "Court": 6733,
      "national": 6734,
      "Siden": 6735,
      "prim": 6736,
      "exped": 6737,
      "hosp": 6738,
      "Sidenote": 6739,
      "altogether": 6740,
      "succeeded": 6741,
      "established": 6742,
      "Cath": 6743,
      "univers": 6744,
      "sch": 6745,
      "tw": 6746,
      "consist": 6747,
      "style": 6748,
      "exactly": 6749,
      "inno": 6750,
      "education": 6751,
      "questions": 6752,
      "darkness": 6753,
      "bare": 6754,
      "60": 6755,
      "Arch": 6756,
      "valu": 6757,
      "powers": 6758,
      "effort": 6759,
      "skin": 6760,
      "grown": 6761,
      "exper": 6762,
      "mitted": 6763,
      "leading": 6764,
      "respon": 6765,
      "distant": 6766,
      "events": 6767,
      "attered": 6768,
      "gentlemen": 6769,
      "rising": 6770,
      "rob": 6771,
      "aware": 6772,
      "yn": 6773,
      "explain": 6774,
      "dare": 6775,
      "Robert": 6776,
      "oned": 6777,
      "hills": 6778,
      "Law": 6779,
      "sympath": 6780,
      "dwell": 6781,
      "settle": 6782,
      "yr": 6783,
      "Vol": 6784,
      "31": 6785,
      "advance": 6786,
      "Bel": 6787,
      "assem": 6788,
      "urally": 6789,
      "freed": 6790,
      "sigh": 6791,
      "ideas": 6792,
      "Richard": 6793,
      "abe": 6794,
      "crim": 6795,
      "El": 6796,
      "olic": 6797,
      "vert": 6798,
      "thank": 6799,
      "ancing": 6800,
      "extent": 6801,
      "luck": 6802,
      "hid": 6803,
      "recent": 6804,
      "birth": 6805,
      "served": 6806,
      "MA": 6807,
      "wounded": 6808,
      "gest": 6809,
      "loud": 6810,
      "yield": 6811,
      "stick": 6812,
      "liberty": 6813,
      "promised": 6814,
      "resem": 6815,
      "woods": 6816,
      "ashed": 6817,
      "Are": 6818,
      "UN": 6819,
      "glance": 6820,
      "otherwise": 6821,
      "suspic": 6822,
      "sour": 6823,
      "vention": 6824,
      "eness": 6825,
      "mons": 6826,
      "logical": 6827,
      "San": 6828,
      "excl": 6829,
      "sought": 6830,
      "excite": 6831,
      "Wo": 6832,
      "cook": 6833,
      "phen": 6834,
      "confidence": 6835,
      "dish": 6836,
      "First": 6837,
      "keeping": 6838,
      "streets": 6839,
      "Him": 6840,
      "aud": 6841,
      "superior": 6842,
      "principal": 6843,
      "ero": 6844,
      "faces": 6845,
      "estern": 6846,
      "particularly": 6847,
      "Wil": 6848,
      "agg": 6849,
      "popul": 6850,
      "pic": 6851,
      "worn": 6852,
      "ification": 6853,
      "fined": 6854,
      "kno": 6855,
      "accus": 6856,
      "collect": 6857,
      "opening": 6858,
      "resul": 6859,
      "forgotten": 6860,
      "entr": 6861,
      "practice": 6862,
      "fate": 6863,
      "72": 6864,
      "shel": 6865,
      "price": 6866,
      "!--": 6867,
      "roof": 6868,
      "Cal": 6869,
      "highest": 6870,
      "itut": 6871,
      "umb": 6872,
      "Spanish": 6873,
      "sorry": 6874,
      "July": 6875,
      "removed": 6876,
      "cool": 6877,
      "distur": 6878,
      "vig": 6879,
      "satisfied": 6880,
      "rooms": 6881,
      "principle": 6882,
      "belief": 6883,
      "faction": 6884,
      "addition": 6885,
      "tempor": 6886,
      "Su": 6887,
      "dign": 6888,
      "pointed": 6889,
      "invest": 6890,
      "Port": 6891,
      "glory": 6892,
      "endeav": 6893,
      "chant": 6894,
      "acle": 6895,
      "More": 6896,
      "err": 6897,
      "_D": 6898,
      "Have": 6899,
      "doctr": 6900,
      "produce": 6901,
      "PS": 6902,
      "egg": 6903,
      "discover": 6904,
      "wouldn": 6905,
      "kin": 6906,
      "pes": 6907,
      "evidently": 6908,
      "solemn": 6909,
      "possessed": 6910,
      "Many": 6911,
      "dig": 6912,
      "Street": 6913,
      "pride": 6914,
      "capable": 6915,
      "enced": 6916,
      "date": 6917,
      "Sch": 6918,
      "independ": 6919,
      "recei": 6920,
      "hom": 6921,
      "High": 6922,
      "aked": 6923,
      "sons": 6924,
      "request": 6925,
      "centre": 6926,
      "soldier": 6927,
      "Bet": 6928,
      "pelled": 6929,
      "President": 6930,
      "ators": 6931,
      "judgment": 6932,
      "Mc": 6933,
      "Pat": 6934,
      "mes": 6935,
      "patient": 6936,
      "liament": 6937,
      "fortunate": 6938,
      "wid": 6939,
      "cloth": 6940,
      "civil": 6941,
      "share": 6942,
      "blow": 6943,
      "Prof": 6944,
      "itated": 6945,
      "ival": 6946,
      "fled": 6947,
      "sorrow": 6948,
      "eds": 6949,
      "waters": 6950,
      "valley": 6951,
      "dust": 6952,
      "relation": 6953,
      "powerful": 6954,
      "Had": 6955,
      "ude": 6956,
      "noticed": 6957,
      "Val": 6958,
      "shape": 6959,
      "becomes": 6960,
      "escap": 6961,
      "stones": 6962,
      "refused": 6963,
      "moving": 6964,
      "fly": 6965,
      "Es": 6966,
      "gaz": 6967,
      "tea": 6968,
      "fifteen": 6969,
      "uce": 6970,
      "carriage": 6971,
      "stat": 6972,
      "wore": 6973,
      "conven": 6974,
      "severe": 6975,
      "holy": 6976,
      "prince": 6977,
      "yard": 6978,
      ",[": 6979,
      "44": 6980,
      "watched": 6981,
      "────": 6982,
      "contrary": 6983,
      "ially": 6984,
      "pounds": 6985,
      "cele": 6986,
      "tellect": 6987,
      "exceed": 6988,
      "guest": 6989,
      "shook": 6990,
      "distri": 6991,
      "kingdom": 6992,
      "daily": 6993,
      "states": 6994,
      "stranger": 6995,
      "reve": 6996,
      "render": 6997,
      "sex": 6998,
      "hearts": 6999,
      "servants": 7000,
      "smiled": 7001,
      "science": 7002,
      "ai": 7003,
      "ceased": 7004,
      "_T": 7005,
      "bury": 7006,
      "double": 7007,
      "exhi": 7008,
      "Comp": 7009,
      "equally": 7010,
      "cured": 7011,
      "neighbour": 7012,
      "knowing": 7013,
      "fond": 7014,
      "uncle": 7015,
      "Jose": 7016,
      "preced": 7017,
      "growing": 7018,
      "eder": 7019,
      "celebr": 7020,
      "color": 7021,
      "Wash": 7022,
      "nice": 7023,
      "ieur": 7024,
      "faint": 7025,
      "apparently": 7026,
      "aside": 7027,
      "seek": 7028,
      "castle": 7029,
      "rom": 7030,
      "**": 7031,
      "devil": 7032,
      "vest": 7033,
      "storm": 7034,
      "consequence": 7035,
      "mut": 7036,
      "acious": 7037,
      "isn": 7038,
      "nur": 7039,
      "provided": 7040,
      "brill": 7041,
      "distinguished": 7042,
      "necessity": 7043,
      "larger": 7044,
      "omy": 7045,
      "nel": 7046,
      "rush": 7047,
      "Ham": 7048,
      "Spain": 7049,
      "Rep": 7050,
      "spirits": 7051,
      "pocket": 7052,
      "mat": 7053,
      "papers": 7054,
      "remembered": 7055,
      "imper": 7056,
      "connected": 7057,
      "naturally": 7058,
      "Mac": 7059,
      "visible": 7060,
      "throughout": 7061,
      "accompan": 7062,
      "cture": 7063,
      "increased": 7064,
      "shadow": 7065,
      "treas": 7066,
      "expressed": 7067,
      "Before": 7068,
      "advanced": 7069,
      "nations": 7070,
      "grim": 7071,
      "Book": 7072,
      "Mont": 7073,
      "cis": 7074,
      "====": 7075,
      "mortal": 7076,
      "intellect": 7077,
      "handsome": 7078,
      "32": 7079,
      "poses": 7080,
      "brief": 7081,
      "yards": 7082,
      "ien": 7083,
      "dollars": 7084,
      "local": 7085,
      "explained": 7086,
      "desired": 7087,
      "Edward": 7088,
      "Str": 7089,
      "principles": 7090,
      "sacred": 7091,
      "mult": 7092,
      "follows": 7093,
      "ctive": 7094,
      "inch": 7095,
      "bearing": 7096,
      "labour": 7097,
      "caut": 7098,
      "ky": 7099,
      "assa": 7100,
      "emies": 7101,
      "divine": 7102,
      "intim": 7103,
      "nes": 7104,
      "title": 7105,
      "Mart": 7106,
      "NE": 7107,
      ");": 7108,
      "secure": 7109,
      "cere": 7110,
      "remarked": 7111,
      "flower": 7112,
      "quarters": 7113,
      "Bro": 7114,
      "umber": 7115,
      "lat": 7116,
      "dropped": 7117,
      "vey": 7118,
      "aret": 7119,
      "monstr": 7120,
      "glor": 7121,
      "quietly": 7122,
      "occurred": 7123,
      "ams": 7124,
      "ational": 7125,
      "inent": 7126,
      "worked": 7127,
      "suggested": 7128,
      "umn": 7129,
      "manif": 7130,
      "alous": 7131,
      "cies": 7132,
      "Alex": 7133,
      ".’": 7134,
      "taught": 7135,
      "Sal": 7136,
      "ential": 7137,
      "pril": 7138,
      "acity": 7139,
      "rendered": 7140,
      "osity": 7141,
      "aband": 7142,
      "indust": 7143,
      "subjects": 7144,
      "Catholic": 7145,
      "ented": 7146,
      "sche": 7147,
      "shop": 7148,
      "shoulder": 7149,
      "cript": 7150,
      "jected": 7151,
      "-+": 7152,
      "Cam": 7153,
      "vous": 7154,
      "bodies": 7155,
      "enjo": 7156,
      "major": 7157,
      "East": 7158,
      "enemies": 7159,
      "During": 7160,
      "pair": 7161,
      "beast": 7162,
      "lly": 7163,
      "lia": 7164,
      "crossed": 7165,
      "Bes": 7166,
      "David": 7167,
      "Master": 7168,
      "Mil": 7169,
      "proportion": 7170,
      "fingers": 7171,
      "acquaint": 7172,
      "paren": 7173,
      "inhabitants": 7174,
      "Was": 7175,
      "Smith": 7176,
      "pill": 7177,
      "group": 7178,
      "Look": 7179,
      "tries": 7180,
      "theless": 7181,
      "breakfast": 7182,
      "purch": 7183,
      "voy": 7184,
      "couldn": 7185,
      "Only": 7186,
      "windows": 7187,
      "legs": 7188,
      "tray": 7189,
      "failed": 7190,
      "llen": 7191,
      "ousin": 7192,
      "rapidly": 7193,
      "stands": 7194,
      "creature": 7195,
      "plate": 7196,
      "worship": 7197,
      "dressed": 7198,
      "rant": 7199,
      "carrying": 7200,
      "ba": 7201,
      "ggle": 7202,
      "tongue": 7203,
      "actually": 7204,
      "shoulders": 7205,
      "cow": 7206,
      "ria": 7207,
      "Sen": 7208,
      "Hall": 7209,
      "shows": 7210,
      "Red": 7211,
      "useful": 7212,
      "base": 7213,
      "berg": 7214,
      "hunt": 7215,
      "lets": 7216,
      "fields": 7217,
      "Jim": 7218,
      "relief": 7219,
      "ulous": 7220,
      "Prin": 7221,
      "golden": 7222,
      "surprised": 7223,
      "Its": 7224,
      "suffered": 7225,
      "oh": 7226,
      "knight": 7227,
      "arts": 7228,
      "Philip": 7229,
      "White": 7230,
      "guns": 7231,
      "Heaven": 7232,
      "memor": 7233,
      "accompanied": 7234,
      "chamber": 7235,
      "rights": 7236,
      "pity": 7237,
      "Def": 7238,
      "arest": 7239,
      "OW": 7240,
      "bore": 7241,
      "reser": 7242,
      "proceeded": 7243,
      "unknown": 7244,
      "description": 7245,
      "April": 7246,
      "Virgin": 7247,
      "series": 7248,
      "directly": 7249,
      "180": 7250,
      "bent": 7251,
      "writer": 7252,
      "driven": 7253,
      "Mag": 7254,
      "shame": 7255,
      "seized": 7256,
      "elect": 7257,
      "ds": 7258,
      "ulated": 7259,
      "ributed": 7260,
      "astic": 7261,
      "Fre": 7262,
      "saf": 7263,
      "gathered": 7264,
      "River": 7265,
      "Dor": 7266,
      "Lat": 7267,
      "rocks": 7268,
      "tes": 7269,
      "arrival": 7270,
      "correct": 7271,
      "Des": 7272,
      "agreed": 7273,
      "atory": 7274,
      "volume": 7275,
      "gas": 7276,
      "rested": 7277,
      "pick": 7278,
      "Life": 7279,
      "flesh": 7280,
      "tired": 7281,
      "Med": 7282,
      "finding": 7283,
      "uries": 7284,
      "tenance": 7285,
      "dangerous": 7286,
      "completely": 7287,
      "anc": 7288,
      "rever": 7289,
      "mile": 7290,
      "Thou": 7291,
      "figures": 7292,
      "Nothing": 7293,
      "mony": 7294,
      "treated": 7295,
      "Emperor": 7296,
      "numbers": 7297,
      "Black": 7298,
      "ette": 7299,
      "audi": 7300,
      "gle": 7301,
      "uding": 7302,
      "acknow": 7303,
      "erable": 7304,
      "mental": 7305,
      "pens": 7306,
      "invol": 7307,
      "sult": 7308,
      "applied": 7309,
      "Irish": 7310,
      "Washington": 7311,
      "nother": 7312,
      "frag": 7313,
      "inquir": 7314,
      "supply": 7315,
      "gather": 7316,
      "Gen": 7317,
      "ik": 7318,
      "India": 7319,
      "rease": 7320,
      "march": 7321,
      "midst": 7322,
      "telling": 7323,
      "Joseph": 7324,
      "surely": 7325,
      "Still": 7326,
      "ico": 7327,
      "plent": 7328,
      "freedom": 7329,
      "successful": 7330,
      "satisfaction": 7331,
      "palace": 7332,
      "Som": 7333,
      "Sep": 7334,
      "coll": 7335,
      "employ": 7336,
      "admitted": 7337,
      "65": 7338,
      "myst": 7339,
      "histori": 7340,
      "unch": 7341,
      "lake": 7342,
      "conqu": 7343,
      "Phil": 7344,
      "sco": 7345,
      "lection": 7346,
      "interested": 7347,
      "Pers": 7348,
      "poem": 7349,
      "reader": 7350,
      "aker": 7351,
      "clearly": 7352,
      "bishop": 7353,
      "twice": 7354,
      "sper": 7355,
      "teeth": 7356,
      "type": 7357,
      "hurried": 7358,
      "concerning": 7359,
      "Vic": 7360,
      "represented": 7361,
      "rode": 7362,
      "doors": 7363,
      "saved": 7364,
      "angry": 7365,
      "RA": 7366,
      "composed": 7367,
      "wret": 7368,
      "us_": 7369,
      "founded": 7370,
      "cret": 7371,
      "ender": 7372,
      "Cast": 7373,
      "Sunday": 7374,
      "Another": 7375,
      "splendid": 7376,
      "ids": 7377,
      "Those": 7378,
      "sevent": 7379,
      "join": 7380,
      "farther": 7381,
      "enthus": 7382,
      "aunt": 7383,
      "=,": 7384,
      "Indeed": 7385,
      "80": 7386,
      "faithful": 7387,
      "_B": 7388,
      "flag": 7389,
      "ais": 7390,
      "lst": 7391,
      "dozen": 7392,
      "cultiv": 7393,
      "179": 7394,
      "affect": 7395,
      "calling": 7396,
      "objects": 7397,
      "75": 7398,
      "regret": 7399,
      "aps": 7400,
      "touched": 7401,
      "salt": 7402,
      "cli": 7403,
      "theory": 7404,
      "cto": 7405,
      "mounted": 7406,
      "smoke": 7407,
      "Eliz": 7408,
      "Italy": 7409,
      "soil": 7410,
      "results": 7411,
      "waited": 7412,
      "transl": 7413,
      "consideration": 7414,
      "Und": 7415,
      "Sat": 7416,
      "drive": 7417,
      "utenant": 7418,
      "brary": 7419,
      "task": 7420,
      "ulation": 7421,
      "persu": 7422,
      "san": 7423,
      "obtain": 7424,
      "laughter": 7425,
      "astern": 7426,
      "apped": 7427,
      "nut": 7428,
      "harm": 7429,
      ".;": 7430,
      "alive": 7431,
      "police": 7432,
      "ardon": 7433,
      "lack": 7434,
      "sphere": 7435,
      "eign": 7436,
      "struggle": 7437,
      "Sou": 7438,
      "impression": 7439,
      "duties": 7440,
      "70": 7441,
      "engine": 7442,
      "forces": 7443,
      "printed": 7444,
      "hither": 7445,
      "suffering": 7446,
      "card": 7447,
      "ost": 7448,
      "liked": 7449,
      "_I": 7450,
      "However": 7451,
      "absence": 7452,
      "amongst": 7453,
      "myster": 7454,
      "gradually": 7455,
      "ping": 7456,
      "inside": 7457,
      "Germany": 7458,
      "needed": 7459,
      "Royal": 7460,
      "prophe": 7461,
      "urious": 7462,
      "proposed": 7463,
      "official": 7464,
      "milk": 7465,
      "talked": 7466,
      "introduced": 7467,
      "illy": 7468,
      "isher": 7469,
      "Though": 7470,
      "angers": 7471,
      "burning": 7472,
      "estim": 7473,
      "commer": 7474,
      "Lie": 7475,
      "informed": 7476,
      "Congress": 7477,
      "efforts": 7478,
      "extraordinary": 7479,
      "Ven": 7480,
      "gue": 7481,
      "minds": 7482,
      "----\"": 7483,
      "solid": 7484,
      "divided": 7485,
      "ainted": 7486,
      "tho": 7487,
      "VIII": 7488,
      "genius": 7489,
      "explan": 7490,
      "welcome": 7491,
      "eping": 7492,
      "excitement": 7493,
      "shire": 7494,
      "acted": 7495,
      "listen": 7496,
      "8vo": 7497,
      "whispered": 7498,
      "brain": 7499,
      "truly": 7500,
      "pow": 7501,
      "Majesty": 7502,
      "delay": 7503,
      "putting": 7504,
      "hurt": 7505,
      "hide": 7506,
      "boats": 7507,
      "retreat": 7508,
      "development": 7509,
      "manifest": 7510,
      "55": 7511,
      "VII": 7512,
      "valuable": 7513,
      "fil": 7514,
      "relations": 7515,
      "Among": 7516,
      "hole": 7517,
      "Er": 7518,
      "ec": 7519,
      ",’": 7520,
      "bay": 7521,
      "lovely": 7522,
      "demanded": 7523,
      "connection": 7524,
      "term": 7525,
      "active": 7526,
      "walking": 7527,
      "collection": 7528,
      "entrance": 7529,
      "posing": 7530,
      "Mal": 7531,
      "flat": 7532,
      "hearing": 7533,
      "awa": 7534,
      "features": 7535,
      "prayer": 7536,
      "text": 7537,
      "atives": 7538,
      "drag": 7539,
      "sympathy": 7540,
      "immen": 7541,
      "closely": 7542,
      "Holy": 7543,
      "iety": 7544,
      "Ly": 7545,
      "require": 7546,
      "nod": 7547,
      "PSIL": 7548,
      "\"--": 7549,
      "igned": 7550,
      "accepted": 7551,
      "CON": 7552,
      "disci": 7553,
      "Harry": 7554,
      "excited": 7555,
      "Francis": 7556,
      "whilst": 7557,
      "possibly": 7558,
      "level": 7559,
      "ounce": 7560,
      "isters": 7561,
      "previous": 7562,
      "itors": 7563,
      "spiritual": 7564,
      "views": 7565,
      "quantity": 7566,
      "cott": 7567,
      "100": 7568,
      "gained": 7569,
      "Ire": 7570,
      "buried": 7571,
      "aken": 7572,
      "lifted": 7573,
      "voc": 7574,
      "slave": 7575,
      "gs": 7576,
      "watching": 7577,
      "increase": 7578,
      "yours": 7579,
      "bag": 7580,
      "haust": 7581,
      "seated": 7582,
      "strain": 7583,
      "complain": 7584,
      "bac": 7585,
      "profession": 7586,
      "IX": 7587,
      "LA": 7588,
      "destru": 7589,
      "busy": 7590,
      "orous": 7591,
      "Men": 7592,
      "tum": 7593,
      "absolutely": 7594,
      "mode": 7595,
      "butter": 7596,
      "FOR": 7597,
      "instinct": 7598,
      "Afri": 7599,
      "is_": 7600,
      "arranged": 7601,
      "advice": 7602,
      "Ke": 7603,
      "falling": 7604,
      "circle": 7605,
      "playing": 7606,
      "notes": 7607,
      "Soci": 7608,
      "ada": 7609,
      "Very": 7610,
      "fighting": 7611,
      "nin": 7612,
      "nearer": 7613,
      "accident": 7614,
      "intention": 7615,
      "assured": 7616,
      "manu": 7617,
      "vessels": 7618,
      "Little": 7619,
      "ride": 7620,
      "preh": 7621,
      "current": 7622,
      "ivity": 7623,
      "practical": 7624,
      "terday": 7625,
      "amid": 7626,
      "parents": 7627,
      "aper": 7628,
      "evident": 7629,
      "reput": 7630,
      "fault": 7631,
      "noise": 7632,
      "prisoners": 7633,
      "udes": 7634,
      "tax": 7635,
      "exhaust": 7636,
      "virtue": 7637,
      "hun": 7638,
      "comfortable": 7639,
      "ades": 7640,
      "wand": 7641,
      "parties": 7642,
      "presently": 7643,
      "Major": 7644,
      "Hal": 7645,
      "rous": 7646,
      "mour": 7647,
      "flight": 7648,
      "suit": 7649,
      "hem": 7650,
      "agreeable": 7651,
      "Aust": 7652,
      "careful": 7653,
      "thoroughly": 7654,
      "highly": 7655,
      "deck": 7656,
      "commen": 7657,
      "angl": 7658,
      "happen": 7659,
      "prisoner": 7660,
      "preach": 7661,
      "tele": 7662,
      "explo": 7663,
      "infer": 7664,
      "surrounded": 7665,
      "abo": 7666,
      "forming": 7667,
      "gray": 7668,
      "charged": 7669,
      "wants": 7670,
      "interests": 7671,
      "Long": 7672,
      "essor": 7673,
      "Fer": 7674,
      "quality": 7675,
      "partly": 7676,
      "queen": 7677,
      "stars": 7678,
      "cabin": 7679,
      "avail": 7680,
      "],": 7681,
      "ads": 7682,
      "utch": 7683,
      "resto": 7684,
      "Italian": 7685,
      "gods": 7686,
      "ancy": 7687,
      "kindly": 7688,
      "rupted": 7689,
      "constitution": 7690,
      "showing": 7691,
      "constant": 7692,
      "chest": 7693,
      "exten": 7694,
      "Nature": 7695,
      "civi": 7696,
      "empty": 7697,
      "fellows": 7698,
      "ana": 7699,
      "pour": 7700,
      "Again": 7701,
      "pin": 7702,
      "supper": 7703,
      "store": 7704,
      "acts": 7705,
      "concerned": 7706,
      "physical": 7707,
      "resolved": 7708,
      ";\"": 7709,
      "immense": 7710,
      "tomed": 7711,
      "bush": 7712,
      "Rob": 7713,
      "keen": 7714,
      "CT": 7715,
      "ilities": 7716,
      "fierce": 7717,
      "Spe": 7718,
      "Ca": 7719,
      "listened": 7720,
      "control": 7721,
      "patri": 7722,
      "Grand": 7723,
      "literature": 7724,
      "liqu": 7725,
      "dying": 7726,
      "pron": 7727,
      "population": 7728,
      "plants": 7729,
      "roll": 7730,
      "abund": 7731,
      "despair": 7732,
      "thinks": 7733,
      "oe": 7734,
      "sover": 7735,
      "appreci": 7736,
      "worst": 7737,
      "lock": 7738,
      "attached": 7739,
      "prompt": 7740,
      "BY": 7741,
      "Defn": 7742,
      "hence": 7743,
      "Love": 7744,
      "rout": 7745,
      ".—": 7746,
      "swift": 7747,
      "dull": 7748,
      "begun": 7749,
      "stern": 7750,
      "cean": 7751,
      "avoid": 7752,
      "directed": 7753,
      "unable": 7754,
      "seless": 7755,
      "tells": 7756,
      "kn": 7757,
      "usal": 7758,
      "stated": 7759,
      "laughing": 7760,
      "nie": 7761,
      "CE": 7762,
      "rum": 7763,
      "wholly": 7764,
      "branches": 7765,
      "Cle": 7766,
      "hopes": 7767,
      "skill": 7768,
      "reven": 7769,
      "Au": 7770,
      "Hor": 7771,
      "grey": 7772,
      "secut": 7773,
      "sli": 7774,
      "Company": 7775,
      "rot": 7776,
      "moments": 7777,
      "Hon": 7778,
      "awn": 7779,
      "leep": 7780,
      "Besides": 7781,
      "striking": 7782,
      "becoming": 7783,
      "zy": 7784,
      "calcul": 7785,
      "shoot": 7786,
      "____": 7787,
      "deeply": 7788,
      "orm": 7789,
      "loose": 7790,
      "flour": 7791,
      "wicked": 7792,
      "disco": 7793,
      "grief": 7794,
      "mond": 7795,
      "ERS": 7796,
      "Gl": 7797,
      "imagination": 7798,
      "couple": 7799,
      "rage": 7800,
      "singular": 7801,
      "adopted": 7802,
      "fever": 7803,
      "devoted": 7804,
      "etch": 7805,
      "copy": 7806,
      "ading": 7807,
      "tis": 7808,
      "lla": 7809,
      "cities": 7810,
      "Bill": 7811,
      "delicate": 7812,
      "drop": 7813,
      "buy": 7814,
      "chosen": 7815,
      "izing": 7816,
      "mistress": 7817,
      "applic": 7818,
      "commit": 7819,
      "track": 7820,
      "actual": 7821,
      "continue": 7822,
      "wings": 7823,
      "tion": 7824,
      "imagine": 7825,
      "condem": 7826,
      "Dis": 7827,
      "Pope": 7828,
      "probable": 7829,
      "lover": 7830,
      "visited": 7831,
      "OD": 7832,
      "exercise": 7833,
      "ata": 7834,
      "match": 7835,
      "oil": 7836,
      "pled": 7837,
      "market": 7838,
      "indign": 7839,
      "meat": 7840,
      "42": 7841,
      "wisdom": 7842,
      "pup": 7843,
      "prevail": 7844,
      "destroyed": 7845,
      "safety": 7846,
      "History": 7847,
      "sive": 7848,
      "isl": 7849,
      "causes": 7850,
      "Flo": 7851,
      "este": 7852,
      "indif": 7853,
      "mistake": 7854,
      "contained": 7855,
      "fairly": 7856,
      "constantly": 7857,
      "crime": 7858,
      "admit": 7859,
      "Chin": 7860,
      "lessly": 7861,
      "gay": 7862,
      "Acc": 7863,
      "escaped": 7864,
      "desper": 7865,
      "folk": 7866,
      "Octo": 7867,
      "aling": 7868,
      "shine": 7869,
      "nose": 7870,
      "kinds": 7871,
      "magnific": 7872,
      "citizens": 7873,
      "ATION": 7874,
      "reasons": 7875,
      "tember": 7876,
      "Elizabe": 7877,
      "Parliament": 7878,
      "remo": 7879,
      "rian": 7880,
      "trial": 7881,
      "commission": 7882,
      "brilliant": 7883,
      "accur": 7884,
      "oub": 7885,
      "compreh": 7886,
      "SH": 7887,
      "terror": 7888,
      "bringing": 7889,
      "protection": 7890,
      "ensive": 7891,
      "relie": 7892,
      "smooth": 7893,
      "huge": 7894,
      "pel": 7895,
      "understanding": 7896,
      "friendly": 7897,
      "October": 7898,
      "Sim": 7899,
      "Professor": 7900,
      "stories": 7901,
      "smiling": 7902,
      "contract": 7903,
      "drove": 7904,
      "sacrifice": 7905,
      "accustomed": 7906,
      "countries": 7907,
      "fleet": 7908,
      "patience": 7909,
      "desir": 7910,
      "Like": 7911,
      "hate": 7912,
      "Hill": 7913,
      "ares": 7914,
      "remind": 7915,
      "separate": 7916,
      "Mex": 7917,
      "Mons": 7918,
      "improve": 7919,
      "oul": 7920,
      "curi": 7921,
      "borne": 7922,
      "colon": 7923,
      "ivers": 7924,
      "ldom": 7925,
      "umes": 7926,
      "Ireland": 7927,
      "Mark": 7928,
      "_L": 7929,
      "exception": 7930,
      "statement": 7931,
      "countenance": 7932,
      "fourth": 7933,
      "kins": 7934,
      "sovereign": 7935,
      "hoped": 7936,
      "sufficiently": 7937,
      "itute": 7938,
      "compelled": 7939,
      "cousin": 7940,
      "jection": 7941,
      "changes": 7942,
      "licy": 7943,
      "Wood": 7944,
      "addressed": 7945,
      "manufact": 7946,
      "earlier": 7947,
      "variety": 7948,
      "gently": 7949,
      "Take": 7950,
      "DW64": 7951,
      "mud": 7952,
      "immediate": 7953,
      "rie": 7954,
      "wheel": 7955,
      "horn": 7956,
      "ggl": 7957,
      "Ac": 7958,
      "shelter": 7959,
      "manage": 7960,
      "59": 7961,
      "strict": 7962,
      "rear": 7963,
      "Society": 7964,
      "bited": 7965,
      "banks": 7966,
      "41": 7967,
      "ado": 7968,
      "wet": 7969,
      "contempt": 7970,
      "Aunt": 7971,
      "Under": 7972,
      "fought": 7973,
      "UM": 7974,
      "privile": 7975,
      "leon": 7976,
      "doctrine": 7977,
      "protest": 7978,
      "evol": 7979,
      "ician": 7980,
      "clouds": 7981,
      "assistance": 7982,
      "female": 7983,
      "visions": 7984,
      "finger": 7985,
      "innocent": 7986,
      "September": 7987,
      "urs": 7988,
      "reward": 7989,
      "Doctor": 7990,
      "disease": 7991,
      "i_": 7992,
      "?--": 7993,
      "arose": 7994,
      "dogs": 7995,
      "Sar": 7996,
      "grate": 7997,
      "chiefly": 7998,
      "distress": 7999,
      "City": 8000,
      "classes": 8001,
      "final": 8002,
      "Cer": 8003,
      "appointment": 8004,
      "mercy": 8005,
      "fulness": 8006,
      "sheep": 8007,
      "ization": 8008,
      "credit": 8009,
      "xim": 8010,
      "Marg": 8011,
      "otion": 8012,
      "engage": 8013,
      "factory": 8014,
      "actions": 8015,
      "zed": 8016,
      "ARD": 8017,
      "effects": 8018,
      "178": 8019,
      "recomm": 8020,
      "painted": 8021,
      "Ter": 8022,
      "Bishop": 8023,
      "Nove": 8024,
      "conclusion": 8025,
      "Spir": 8026,
      "Res": 8027,
      "decor": 8028,
      "disappeared": 8029,
      "prospect": 8030,
      "sey": 8031,
      "Ye": 8032,
      "Che": 8033,
      "friendship": 8034,
      "victory": 8035,
      "yesterday": 8036,
      "chor": 8037,
      "caval": 8038,
      "article": 8039,
      "sport": 8040,
      "mi": 8041,
      "mu": 8042,
      "division": 8043,
      "older": 8044,
      "victim": 8045,
      "acquaintance": 8046,
      "_n": 8047,
      "policy": 8048,
      "calls": 8049,
      "dignity": 8050,
      "rag": 8051,
      "region": 8052,
      "tale": 8053,
      "........": 8054,
      "kindness": 8055,
      "thed": 8056,
      "llo": 8057,
      "operation": 8058,
      "Having": 8059,
      "accoun": 8060,
      "energy": 8061,
      "cure": 8062,
      "affected": 8063,
      "gram": 8064,
      "throne": 8065,
      "althy": 8066,
      "ruin": 8067,
      "everywhere": 8068,
      "AB": 8069,
      "critic": 8070,
      "sooner": 8071,
      "deem": 8072,
      "iny": 8073,
      "towns": 8074,
      "peas": 8075,
      "43": 8076,
      "interrupted": 8077,
      "attended": 8078,
      "acquainted": 8079,
      "growth": 8080,
      "aming": 8081,
      "58": 8082,
      "bath": 8083,
      "Reg": 8084,
      "reference": 8085,
      "indul": 8086,
      "Elizabeth": 8087,
      "Uncle": 8088,
      "56": 8089,
      "Isa": 8090,
      "sugar": 8091,
      "choice": 8092,
      "ini": 8093,
      "scient": 8094,
      "civiliz": 8095,
      "positions": 8096,
      "plenty": 8097,
      "thur": 8098,
      "goods": 8099,
      "57": 8100,
      "cattle": 8101,
      "haven": 8102,
      "acles": 8103,
      "proble": 8104,
      "Bay": 8105,
      "expedition": 8106,
      "itz": 8107,
      "Lin": 8108,
      "slightly": 8109,
      "knees": 8110,
      "details": 8111,
      "Three": 8112,
      "seldom": 8113,
      "bought": 8114,
      "defence": 8115,
      "guide": 8116,
      "praise": 8117,
      "prosper": 8118,
      "articles": 8119,
      "hurry": 8120,
      "lux": 8121,
      "Governor": 8122,
      "Te": 8123,
      "emer": 8124,
      "pas": 8125,
      "Earl": 8126,
      "interval": 8127,
      "natives": 8128,
      "powder": 8129,
      "embar": 8130,
      "Gal": 8131,
      "discovery": 8132,
      "atively": 8133,
      "iture": 8134,
      "inced": 8135,
      "companions": 8136,
      "commanded": 8137,
      "ras": 8138,
      "Pri": 8139,
      "inity": 8140,
      "Mid": 8141,
      "consciousness": 8142,
      "slaves": 8143,
      "weap": 8144,
      "purposes": 8145,
      "precious": 8146,
      "Napo": 8147,
      "hidden": 8148,
      "BO": 8149,
      "foolish": 8150,
      "extended": 8151,
      "conscience": 8152,
      "neighbor": 8153,
      "jealous": 8154,
      "mun": 8155,
      "treatment": 8156,
      "meal": 8157,
      "About": 8158,
      "thri": 8159,
      "intelligence": 8160,
      "eth": 8161,
      "sentiment": 8162,
      "\u0000\u0000\u0000\u0000\u0000\u0000\u0000\u0000": 8163,
      "tar": 8164,
      "vy": 8165,
      "weary": 8166,
      "ller": 8167,
      "regiment": 8168,
      "hers": 8169,
      "January": 8170,
      "eding": 8171,
      "brothers": 8172,
      "enes": 8173,
      "explanation": 8174,
      "LO": 8175,
      "approached": 8176,
      "newsp": 8177,
      "oked": 8178,
      "everybody": 8179,
      "signs": 8180,
      "].": 8181,
      "cting": 8182,
      "containing": 8183,
      "Bra": 8184,
      "cking": 8185,
      "nobody": 8186,
      "wasn": 8187,
      "permitted": 8188,
      "Bob": 8189,
      "elle": 8190,
      "message": 8191,
      "strike": 8192,
      "coach": 8193,
      "Mat": 8194,
      "blank": 8195,
      "pardon": 8196,
      "aux": 8197,
      "asleep": 8198,
      "extremely": 8199,
      "alarm": 8200,
      "roads": 8201,
      "Shak": 8202,
      "chapter": 8203,
      "lift": 8204,
      "tories": 8205,
      "_F": 8206,
      "singing": 8207,
      "issue": 8208,
      "Dece": 8209,
      "Boston": 8210,
      "theat": 8211,
      "machine": 8212,
      "ache": 8213,
      "Scotland": 8214,
      "Monsieur": 8215,
      "pulled": 8216,
      "clever": 8217,
      "Once": 8218,
      "Both": 8219,
      "preserved": 8220,
      "Arthur": 8221,
      "tort": 8222,
      "struggl": 8223,
      "leader": 8224,
      "appreh": 8225,
      "district": 8226,
      "Green": 8227,
      "——": 8228,
      "bree": 8229,
      "shed": 8230,
      "shr": 8231,
      "thousands": 8232,
      "kitch": 8233,
      "EM": 8234,
      "Napoleon": 8235,
      "ilty": 8236,
      "pho": 8237,
      "nife": 8238,
      "advis": 8239,
      "services": 8240,
      "temple": 8241,
      "Trans": 8242,
      "sme": 8243,
      "Land": 8244,
      "Mother": 8245,
      "Would": 8246,
      "consent": 8247,
      "wishes": 8248,
      "frame": 8249,
      "------": 8250,
      "dete": 8251,
      "Island": 8252,
      "Nat": 8253,
      "stretched": 8254,
      "AY": 8255,
      "needs": 8256,
      "amuse": 8257,
      "estic": 8258,
      "Other": 8259,
      "CO": 8260,
      "instantly": 8261,
      "poison": 8262,
      "Tell": 8263,
      "lighted": 8264,
      "Clar": 8265,
      "_H": 8266,
      "specim": 8267,
      "vice": 8268,
      "Latin": 8269,
      "frequent": 8270,
      "properly": 8271,
      "furnished": 8272,
      "artist": 8273,
      "reality": 8274,
      "families": 8275,
      "qualities": 8276,
      "November": 8277,
      "celebrated": 8278,
      "refer": 8279,
      "occasionally": 8280,
      "_d": 8281,
      "rejo": 8282,
      "inclined": 8283,
      "universal": 8284,
      "smaller": 8285,
      "returning": 8286,
      "Britain": 8287,
      "characters": 8288,
      "Each": 8289,
      "destruction": 8290,
      "Div": 8291,
      "pipe": 8292,
      "handed": 8293,
      "lon": 8294,
      "pense": 8295,
      "formerly": 8296,
      "hospital": 8297,
      "source": 8298,
      "Ox": 8299,
      "compet": 8300,
      "hotel": 8301,
      "investig": 8302,
      "committed": 8303,
      "crew": 8304,
      "patch": 8305,
      "leap": 8306,
      "obed": 8307,
      "PE": 8308,
      "pred": 8309,
      "impul": 8310,
      "dance": 8311,
      "oms": 8312,
      "inction": 8313,
      "souls": 8314,
      "argument": 8315,
      "shell": 8316,
      "habits": 8317,
      "subsequ": 8318,
      "ology": 8319,
      "voices": 8320,
      "stal": 8321,
      "greet": 8322,
      "eggs": 8323,
      "December": 8324,
      "Upon": 8325,
      "setting": 8326,
      "Prov": 8327,
      "IM": 8328,
      "rival": 8329,
      "Bal": 8330,
      "desert": 8331,
      "rushed": 8332,
      "agger": 8333,
      "savage": 8334,
      "itate": 8335,
      "delivered": 8336,
      "ashes": 8337,
      "sink": 8338,
      "baby": 8339,
      "branch": 8340,
      "PER": 8341,
      "infinite": 8342,
      "pages": 8343,
      "awful": 8344,
      "Union": 8345,
      "accomplished": 8346,
      "Scott": 8347,
      "learning": 8348,
      "69": 8349,
      "erson": 8350,
      "inner": 8351,
      "trait": 8352,
      "ahead": 8353,
      "recognized": 8354,
      "poetry": 8355,
      "FR": 8356,
      "Bible": 8357,
      "Tem": 8358,
      "vious": 8359,
      "knife": 8360,
      "SS": 8361,
      "kings": 8362,
      "sprang": 8363,
      "thunder": 8364,
      "admiration": 8365,
      "tent": 8366,
      "anxiety": 8367,
      "arse": 8368,
      "ID": 8369,
      "ANT": 8370,
      "Poor": 8371,
      "mod": 8372,
      "reflect": 8373,
      "era": 8374,
      "sixty": 8375,
      "Mich": 8376,
      "county": 8377,
      "andy": 8378,
      "difficulties": 8379,
      "perpet": 8380,
      "disput": 8381,
      "bones": 8382,
      "contains": 8383,
      "rug": 8384,
      "Pol": 8385,
      "lam": 8386,
      "Van": 8387,
      "enorm": 8388,
      "QU": 8389,
      "urches": 8390,
      "pra": 8391,
      "mechan": 8392,
      "Pet": 8393,
      "atmo": 8394,
      "Rose": 8395,
      "ulate": 8396,
      "whence": 8397,
      "collected": 8398,
      "Del": 8399,
      "mixed": 8400,
      "ministr": 8401,
      "68": 8402,
      "coal": 8403,
      "strongly": 8404,
      "eighteen": 8405,
      "guilty": 8406,
      "leaf": 8407,
      "kitchen": 8408,
      "Any": 8409,
      "odd": 8410,
      "UL": 8411,
      "ension": 8412,
      "prud": 8413,
      "Dar": 8414,
      "ishes": 8415,
      "Mur": 8416,
      "contrast": 8417,
      "angle": 8418,
      "52": 8419,
      "younger": 8420,
      "Which": 8421,
      ";--": 8422,
      "obst": 8423,
      "sentence": 8424,
      "ante": 8425,
      "veget": 8426,
      "gust": 8427,
      "schol": 8428,
      "asking": 8429,
      "batt": 8430,
      "Jap": 8431,
      "governor": 8432,
      "econ": 8433,
      "iel": 8434,
      "rolled": 8435,
      "fatal": 8436,
      "glorious": 8437,
      "granted": 8438,
      "fection": 8439,
      "throat": 8440,
      "thrust": 8441,
      "inher": 8442,
      "Since": 8443,
      "Far": 8444,
      "tight": 8445,
      "charming": 8446,
      "philosophy": 8447,
      "utterly": 8448,
      "western": 8449,
      "confusion": 8450,
      "bull": 8451,
      "violent": 8452,
      "thanks": 8453,
      "choose": 8454,
      "propri": 8455,
      "manners": 8456,
      "fund": 8457,
      "departure": 8458,
      "Up": 8459,
      "clergy": 8460,
      "nav": 8461,
      "geon": 8462,
      "inquired": 8463,
      "loqu": 8464,
      "Spirit": 8465,
      "Helen": 8466,
      "sadd": 8467,
      "ushing": 8468,
      "Isra": 8469,
      "miserable": 8470,
      "buildings": 8471,
      "performed": 8472,
      "literary": 8473,
      "quisite": 8474,
      "narr": 8475,
      "plans": 8476,
      "intend": 8477,
      "emotion": 8478,
      "Chinese": 8479,
      "eleven": 8480,
      "developed": 8481,
      "loving": 8482,
      "aspect": 8483,
      "trail": 8484,
      "horri": 8485,
      "BE": 8486,
      "ART": 8487,
      "vote": 8488,
      "iest": 8489,
      "centuries": 8490,
      "perfor": 8491,
      "reduced": 8492,
      "Son": 8493,
      "Sil": 8494,
      "doubtless": 8495,
      "Sup": 8496,
      "betray": 8497,
      "Bon": 8498,
      "inging": 8499,
      "anno": 8500,
      "ties": 8501,
      "Univers": 8502,
      "lights": 8503,
      "breaking": 8504,
      "ka": 8505,
      "eties": 8506,
      "majority": 8507,
      "solution": 8508,
      "dreadful": 8509,
      "unfortunate": 8510,
      "doesn": 8511,
      "feather": 8512,
      "penet": 8513,
      "Gra": 8514,
      "curiosity": 8515,
      "90": 8516,
      "Lake": 8517,
      "bosom": 8518,
      "Bu": 8519,
      "waste": 8520,
      "Israel": 8521,
      "shouted": 8522,
      "rat": 8523,
      "feast": 8524,
      "pap": 8525,
      "punishment": 8526,
      "Jews": 8527,
      "JO": 8528,
      "Margaret": 8529,
      "travel": 8530,
      "household": 8531,
      "writers": 8532,
      "withstanding": 8533,
      "supre": 8534,
      "wick": 8535,
      "tribes": 8536,
      "pressure": 8537,
      "defend": 8538,
      "stuff": 8539,
      "lege": 8540,
      "contem": 8541,
      "movements": 8542,
      "repro": 8543,
      "PSILON": 8544,
      "According": 8545,
      "created": 8546,
      "Mill": 8547,
      "intense": 8548,
      "European": 8549,
      "acid": 8550,
      ".\"--": 8551,
      "crack": 8552,
      "waves": 8553,
      "domestic": 8554,
      "pless": 8555,
      "prefer": 8556,
      "uits": 8557,
      "incident": 8558,
      "Den": 8559,
      "hanging": 8560,
      "brow": 8561,
      "ora": 8562,
      "Ros": 8563,
      "execution": 8564,
      "schools": 8565,
      "likewise": 8566,
      "accord": 8567,
      "shade": 8568,
      "imony": 8569,
      "Park": 8570,
      "Brown": 8571,
      "BER": 8572,
      "78": 8573,
      "commenced": 8574,
      "craft": 8575,
      "Febr": 8576,
      "det": 8577,
      "lone": 8578,
      "ols": 8579,
      "vine": 8580,
      "excess": 8581,
      "aine": 8582,
      "blessed": 8583,
      "retired": 8584,
      "rial": 8585,
      "sus": 8586,
      "offee": 8587,
      "paused": 8588,
      "owner": 8589,
      "xed": 8590,
      "absor": 8591,
      "essential": 8592,
      "scientific": 8593,
      "uniform": 8594,
      "section": 8595,
      "grees": 8596,
      "attitude": 8597,
      "gift": 8598,
      "Because": 8599,
      "Mess": 8600,
      "surd": 8601,
      "hollow": 8602,
      "observe": 8603,
      "gets": 8604,
      "abroad": 8605,
      "Jean": 8606,
      "Pen": 8607,
      "pier": 8608,
      "remaining": 8609,
      "murm": 8610,
      "idle": 8611,
      "phenomen": 8612,
      "Russian": 8613,
      "belonged": 8614,
      "loc": 8615,
      "sounds": 8616,
      "slip": 8617,
      "union": 8618,
      "Mos": 8619,
      "library": 8620,
      "falls": 8621,
      "edition": 8622,
      "readily": 8623,
      "measures": 8624,
      "spend": 8625,
      "66": 8626,
      "Japan": 8627,
      "burgh": 8628,
      "silk": 8629,
      "February": 8630,
      "Virginia": 8631,
      "ocean": 8632,
      "clam": 8633,
      "dar": 8634,
      "ignorant": 8635,
      "domin": 8636,
      "club": 8637,
      "sees": 8638,
      "warri": 8639,
      "trace": 8640,
      "convinced": 8641,
      "_E": 8642,
      "',": 8643,
      "frightened": 8644,
      "northern": 8645,
      "enjoyed": 8646,
      "hit": 8647,
      "ille": 8648,
      "ano": 8649,
      "priests": 8650,
      "rele": 8651,
      "faced": 8652,
      "UT": 8653,
      "swept": 8654,
      "creatures": 8655,
      "ara": 8656,
      "stepped": 8657,
      "referred": 8658,
      "descend": 8659,
      "Dutch": 8660,
      "Mus": 8661,
      "sixteen": 8662,
      "cheeks": 8663,
      "substance": 8664,
      "ester": 8665,
      "project": 8666,
      "flying": 8667,
      "acknowled": 8668,
      "rude": 8669,
      "feared": 8670,
      "Council": 8671,
      "delighted": 8672,
      "assumed": 8673,
      "ught": 8674,
      "profound": 8675,
      "fix": 8676,
      "horiz": 8677,
      "seed": 8678,
      "stup": 8679,
      "ological": 8680,
      "career": 8681,
      "limited": 8682,
      "elder": 8683,
      "announced": 8684,
      "degrees": 8685,
      "Gold": 8686,
      "disposed": 8687,
      "Art": 8688,
      "von": 8689,
      "Act": 8690,
      "wretched": 8691,
      "approaching": 8692,
      "helped": 8693,
      "lately": 8694,
      "element": 8695,
      "absurd": 8696,
      "keeper": 8697,
      "za": 8698,
      "mysterious": 8699,
      "alike": 8700,
      "zo": 8701,
      "umin": 8702,
      "appeal": 8703,
      "separated": 8704,
      "Jac": 8705,
      "belonging": 8706,
      "generous": 8707,
      "raw": 8708,
      "ashing": 8709,
      "eternal": 8710,
      "mam": 8711,
      "opposition": 8712,
      "acon": 8713,
      "MAN": 8714,
      "forbid": 8715,
      "secured": 8716,
      "Sax": 8717,
      "Wall": 8718,
      "depos": 8719,
      "excuse": 8720,
      "related": 8721,
      "bol": 8722,
      "Princess": 8723,
      "voyage": 8724,
      "istr": 8725,
      "exposed": 8726,
      "gates": 8727,
      "arrangement": 8728,
      "enger": 8729,
      "Conf": 8730,
      "observation": 8731,
      "Fri": 8732,
      "Pre": 8733,
      "acing": 8734,
      "Four": 8735,
      "rang": 8736,
      "perman": 8737,
      "missed": 8738,
      "sust": 8739,
      "precise": 8740,
      "Most": 8741,
      "thence": 8742,
      "bond": 8743,
      "fi": 8744,
      "access": 8745,
      "ideal": 8746,
      "ju": 8747,
      "remarks": 8748,
      "insp": 8749,
      "echo": 8750,
      "benefit": 8751,
      "medic": 8752,
      "burden": 8753,
      "Out": 8754,
      "mystery": 8755,
      "scattered": 8756,
      "Dun": 8757,
      "reasonable": 8758,
      "Although": 8759,
      "tram": 8760,
      "opinions": 8761,
      "hunting": 8762,
      "humble": 8763,
      "rison": 8764,
      "council": 8765,
      "ael": 8766,
      "wooden": 8767,
      "magnificent": 8768,
      "unhappy": 8769,
      "united": 8770,
      "pushed": 8771,
      "including": 8772,
      "entit": 8773,
      "claims": 8774,
      "Chap": 8775,
      "outer": 8776,
      "whenever": 8777,
      "suspicion": 8778,
      "Hol": 8779,
      "MAR": 8780,
      "sie": 8781,
      "intellectual": 8782,
      "mate": 8783,
      "Secret": 8784,
      "risk": 8785,
      "hint": 8786,
      "softly": 8787,
      "possibility": 8788,
      "counsel": 8789,
      "Sea": 8790,
      "PA": 8791,
      "Gar": 8792,
      "examination": 8793,
      "passes": 8794,
      "tha": 8795,
      "Whe": 8796,
      "guests": 8797,
      "horror": 8798,
      "frank": 8799,
      "79": 8800,
      "bride": 8801,
      "deri": 8802,
      "ELL": 8803,
      "[=": 8804,
      "managed": 8805,
      "Sometimes": 8806,
      "Thy": 8807,
      "steep": 8808,
      "anybody": 8809,
      "useless": 8810,
      "Sto": 8811,
      "ura": 8812,
      "Cent": 8813,
      "eagerly": 8814,
      "appropri": 8815,
      "obsc": 8816,
      "ingen": 8817,
      "enterpr": 8818,
      "metal": 8819,
      "expense": 8820,
      "pause": 8821,
      "utmost": 8822,
      "portions": 8823,
      "athed": 8824,
      "version": 8825,
      "Christmas": 8826,
      "weigh": 8827,
      "islands": 8828,
      "destroy": 8829,
      "dict": 8830,
      "plainly": 8831,
      "compared": 8832,
      "reputation": 8833,
      "bi": 8834,
      "stam": 8835,
      "estate": 8836,
      "revolution": 8837,
      "concluded": 8838,
      "legal": 8839,
      "licity": 8840,
      "Fair": 8841,
      "neighb": 8842,
      "anks": 8843,
      "nights": 8844,
      "76": 8845,
      "Day": 8846,
      "aks": 8847,
      "scorn": 8848,
      "mart": 8849,
      "signific": 8850,
      "refuse": 8851,
      "ornament": 8852,
      "atmosphere": 8853,
      "WH": 8854,
      "perceived": 8855,
      "oy": 8856,
      "attempted": 8857,
      "deliber": 8858,
      "Jane": 8859,
      "temporary": 8860,
      "hitherto": 8861,
      "nervous": 8862,
      "illa": 8863,
      "flood": 8864,
      "dreams": 8865,
      "rey": 8866,
      "supported": 8867,
      "psy": 8868,
      "delightful": 8869,
      "behold": 8870,
      "altar": 8871,
      "ration": 8872,
      "picked": 8873,
      "fathers": 8874,
      "paign": 8875,
      "exerc": 8876,
      "Tal": 8877,
      "ILL": 8878,
      "scheme": 8879,
      "cip": 8880,
      "Second": 8881,
      "experienced": 8882,
      "Tri": 8883,
      "oath": 8884,
      "shining": 8885,
      "Saint": 8886,
      "novel": 8887,
      "blame": 8888,
      "slept": 8889,
      "ador": 8890,
      "grounds": 8891,
      "melan": 8892,
      "recon": 8893,
      "characteristic": 8894,
      "monarch": 8895,
      "flow": 8896,
      "jun": 8897,
      "mankind": 8898,
      "RON": 8899,
      "rust": 8900,
      "distinction": 8901,
      "tower": 8902,
      "vac": 8903,
      "idents": 8904,
      "definite": 8905,
      "renew": 8906,
      "Por": 8907,
      "abled": 8908,
      "haw": 8909,
      "weakness": 8910,
      "Spani": 8911,
      "gam": 8912,
      "issued": 8913,
      "authorities": 8914,
      "provin": 8915,
      "Christians": 8916,
      "fortunately": 8917,
      "ascertain": 8918,
      "total": 8919,
      "churches": 8920,
      "Di": 8921,
      "occasions": 8922,
      "tribe": 8923,
      "ray": 8924,
      "Water": 8925,
      "independent": 8926,
      "encounter": 8927,
      "riding": 8928,
      "mood": 8929,
      "joint": 8930,
      "rules": 8931,
      "spel": 8932,
      "headed": 8933,
      "Hy": 8934,
      "kissed": 8935,
      "vague": 8936,
      "image": 8937,
      "thread": 8938,
      "quires": 8939,
      "Sol": 8940,
      "ica": 8941,
      "choly": 8942,
      "Joe": 8943,
      "fired": 8944,
      "cents": 8945,
      "PO": 8946,
      "uge": 8947,
      "Sus": 8948,
      "stiff": 8949,
      "humanity": 8950,
      "swell": 8951,
      "covering": 8952,
      "archite": 8953,
      "uals": 8954,
      "Arab": 8955,
      "thetic": 8956,
      "lamp": 8957,
      "Gent": 8958,
      "fame": 8959,
      "loyal": 8960,
      "oblig": 8961,
      "acting": 8962,
      "construction": 8963,
      "reported": 8964,
      "ounds": 8965,
      "Martin": 8966,
      "onder": 8967,
      "freely": 8968,
      "flame": 8969,
      "modest": 8970,
      "irr": 8971,
      "urged": 8972,
      "Carol": 8973,
      "crowded": 8974,
      "resolution": 8975,
      "rated": 8976,
      "ridic": 8977,
      "invited": 8978,
      "cavalry": 8979,
      "Fa": 8980,
      "burned": 8981,
      "cig": 8982,
      "PR": 8983,
      "ghost": 8984,
      "scr": 8985,
      "dimin": 8986,
      "Fin": 8987,
      "trembling": 8988,
      "indis": 8989,
      "nevertheless": 8990,
      "prejud": 8991,
      "legisl": 8992,
      "Cont": 8993,
      "TA": 8994,
      "descended": 8995,
      "grateful": 8996,
      "community": 8997,
      "troubles": 8998,
      "Youn": 8999,
      "batter": 9000,
      "communication": 9001,
      "abor": 9002,
      "Mel": 9003,
      "noted": 9004,
      "DW72": 9005,
      "hut": 9006,
      "transport": 9007,
      "OUR": 9008,
      "aph": 9009,
      "somewhere": 9010,
      "completed": 9011,
      "elements": 9012,
      "vas": 9013,
      "bark": 9014,
      "bask": 9015,
      "verted": 9016,
      "tradition": 9017,
      "enormous": 9018,
      "spected": 9019,
      "entertain": 9020,
      "tide": 9021,
      "School": 9022,
      "es_": 9023,
      "--------------------------------": 9024,
      "troubled": 9025,
      "gaze": 9026,
      "demonstr": 9027,
      "ignorance": 9028,
      "Russia": 9029,
      "chain": 9030,
      "Ay": 9031,
      "77": 9032,
      "eral": 9033,
      "instrument": 9034,
      "acquired": 9035,
      "circumstance": 9036,
      "Anne": 9037,
      "py": 9038,
      "structure": 9039,
      "Si": 9040,
      "Protest": 9041,
      "College": 9042,
      "olf": 9043,
      "central": 9044,
      "anticip": 9045,
      "quet": 9046,
      "brig": 9047,
      "coffee": 9048,
      "pine": 9049,
      "iasm": 9050,
      "steel": 9051,
      "scenes": 9052,
      "iot": 9053,
      "unconscious": 9054,
      "Ange": 9055,
      "NOT": 9056,
      "derived": 9057,
      "spare": 9058,
      "ums": 9059,
      "Lieutenant": 9060,
      ".\"[": 9061,
      "interior": 9062,
      "southern": 9063,
      "melancholy": 9064,
      "assert": 9065,
      "commonly": 9066,
      "horizon": 9067,
      "production": 9068,
      "nic": 9069,
      "inscri": 9070,
      "chape": 9071,
      "elsewhere": 9072,
      "masters": 9073,
      "disposition": 9074,
      "gazed": 9075,
      "Through": 9076,
      "bade": 9077,
      "Sure": 9078,
      "performan": 9079,
      "beloved": 9080,
      "turns": 9081,
      "Certain": 9082,
      "vet": 9083,
      "Hence": 9084,
      "tables": 9085,
      "Castle": 9086,
      "200": 9087,
      "tied": 9088,
      "spark": 9089,
      "53": 9090,
      "iday": 9091,
      "aging": 9092,
      "Ty": 9093,
      "province": 9094,
      "generation": 9095,
      "bone": 9096,
      "experiment": 9097,
      "speaks": 9098,
      "reaching": 9099,
      "misery": 9100,
      "examined": 9101,
      "tie": 9102,
      "wondered": 9103,
      "Mas": 9104,
      "angel": 9105,
      "VER": 9106,
      "sibility": 9107,
      "forehead": 9108,
      "eleg": 9109,
      "liness": 9110,
      "beha": 9111,
      "Alexander": 9112,
      "esteem": 9113,
      "pig": 9114,
      "inse": 9115,
      "Athen": 9116,
      "Page": 9117,
      "attacked": 9118,
      "finds": 9119,
      "discussion": 9120,
      "KE": 9121,
      "methods": 9122,
      "inary": 9123,
      "provisions": 9124,
      "listening": 9125,
      "previously": 9126,
      "ena": 9127,
      "lio": 9128,
      "pent": 9129,
      "dram": 9130,
      "painful": 9131,
      "toler": 9132,
      "enthusiasm": 9133,
      "activity": 9134,
      "unexpected": 9135,
      "udd": 9136,
      "sions": 9137,
      "Ap": 9138,
      "Hard": 9139,
      "_a": 9140,
      "firmly": 9141,
      "adel": 9142,
      "administr": 9143,
      "fourteen": 9144,
      "fid": 9145,
      "confined": 9146,
      "accordingly": 9147,
      "capacity": 9148,
      "steady": 9149,
      "lict": 9150,
      "consists": 9151,
      "hypo": 9152,
      "Death": 9153,
      "ider": 9154,
      "Sav": 9155,
      "achie": 9156,
      "iah": 9157,
      "recovered": 9158,
      "unning": 9159,
      "pole": 9160,
      "entitled": 9161,
      "entering": 9162,
      "contri": 9163,
      "specul": 9164,
      "cheek": 9165,
      "sacrific": 9166,
      "fy": 9167,
      "merry": 9168,
      "violence": 9169,
      "cence": 9170,
      "marched": 9171,
      "Ang": 9172,
      "incere": 9173,
      "signal": 9174,
      "ountain": 9175,
      "Ann": 9176,
      "ubli": 9177,
      "summon": 9178,
      "campaign": 9179,
      "dared": 9180,
      "instances": 9181,
      "Tis": 9182,
      "parted": 9183,
      "Africa": 9184,
      "invent": 9185,
      "Christianity": 9186,
      "hastily": 9187,
      "barbar": 9188,
      "begins": 9189,
      "intent": 9190,
      "root": 9191,
      "Sur": 9192,
      "uncertain": 9193,
      "vir": 9194,
      "extract": 9195,
      "average": 9196,
      "decision": 9197,
      "Cur": 9198,
      "dawn": 9199,
      "IGH": 9200,
      "vul": 9201,
      "mild": 9202,
      "asion": 9203,
      "_R": 9204,
      "residence": 9205,
      "teaching": 9206,
      "establishment": 9207,
      "haste": 9208,
      "obe": 9209,
      "pursued": 9210,
      "Young": 9211,
      "Freder": 9212,
      "territory": 9213,
      "~,": 9214,
      "docu": 9215,
      "omer": 9216,
      "college": 9217,
      "cia": 9218,
      "pression": 9219,
      "SC": 9220,
      "ux": 9221,
      "cliff": 9222,
      "Cas": 9223,
      "bowed": 9224,
      "glanced": 9225,
      "accompany": 9226,
      "runs": 9227,
      "graphy": 9228,
      "OUN": 9229,
      "1st": 9230,
      "consequently": 9231,
      "Camp": 9232,
      "bears": 9233,
      "Asi": 9234,
      "resistance": 9235,
      "ALPH": 9236,
      "Ev": 9237,
      "engers": 9238,
      "error": 9239,
      "cock": 9240,
      "mistaken": 9241,
      "conve": 9242,
      "bottle": 9243,
      "74": 9244,
      "COM": 9245,
      "supplied": 9246,
      "fected": 9247,
      "millions": 9248,
      "selfish": 9249,
      "ket": 9250,
      "Lincol": 9251,
      "necessarily": 9252,
      "e_": 9253,
      "ita": 9254,
      "lap": 9255,
      "Shall": 9256,
      "operations": 9257,
      "cries": 9258,
      "ifying": 9259,
      "Therefore": 9260,
      "hea": 9261,
      "54": 9262,
      "staff": 9263,
      "Nay": 9264,
      "parent": 9265,
      "Johnson": 9266,
      "warning": 9267,
      "MR": 9268,
      "desperate": 9269,
      "application": 9270,
      "widow": 9271,
      "conception": 9272,
      "SON": 9273,
      "pover": 9274,
      "slavery": 9275,
      "Pan": 9276,
      "standard": 9277,
      "stronger": 9278,
      "directions": 9279,
      "irty": 9280,
      "abandoned": 9281,
      "whist": 9282,
      "foundation": 9283,
      "failure": 9284,
      "maintained": 9285,
      "railway": 9286,
      "gal": 9287,
      "existed": 9288,
      "iast": 9289,
      "cotton": 9290,
      "aus": 9291,
      "ona": 9292,
      "Ori": 9293,
      "Lincoln": 9294,
      "cutting": 9295,
      "concealed": 9296,
      "fest": 9297,
      "Mean": 9298,
      "motions": 9299,
      "devotion": 9300,
      "institut": 9301,
      "vary": 9302,
      "captured": 9303,
      "audience": 9304,
      "University": 9305,
      "Oxford": 9306,
      "loves": 9307,
      "reproach": 9308,
      "ashamed": 9309,
      "genu": 9310,
      "philosopher": 9311,
      "daughters": 9312,
      "reek": 9313,
      "mann": 9314,
      "murmured": 9315,
      "hearted": 9316,
      "heap": 9317,
      ",—": 9318,
      "pir": 9319,
      "nearest": 9320,
      "favourite": 9321,
      "atus": 9322,
      "forgive": 9323,
      "monu": 9324,
      "HE": 9325,
      "oubted": 9326,
      "composition": 9327,
      "stout": 9328,
      "asped": 9329,
      "paralle": 9330,
      "Ce": 9331,
      "contain": 9332,
      "empire": 9333,
      "Corn": 9334,
      "paint": 9335,
      "lonely": 9336,
      "vering": 9337,
      "XXX": 9338,
      "landed": 9339,
      "restored": 9340,
      "grasp": 9341,
      "eating": 9342,
      "writes": 9343,
      "plat": 9344,
      "afterward": 9345,
      "mel": 9346,
      "Cy": 9347,
      "recently": 9348,
      "asser": 9349,
      "strained": 9350,
      "million": 9351,
      "mob": 9352,
      "sleeping": 9353,
      "departed": 9354,
      "rier": 9355,
      "gratitude": 9356,
      "_G": 9357,
      "clay": 9358,
      ",)": 9359,
      "presents": 9360,
      "iable": 9361,
      "neighbourhood": 9362,
      "liver": 9363,
      "opposed": 9364,
      "Jour": 9365,
      "increasing": 9366,
      "exceedingly": 9367,
      "accounts": 9368,
      "usive": 9369,
      "88": 9370,
      "um_": 9371,
      "historical": 9372,
      "shoes": 9373,
      "tery": 9374,
      "esy": 9375,
      "resting": 9376,
      "Walter": 9377,
      "Spr": 9378,
      "urance": 9379,
      "fed": 9380,
      "eloqu": 9381,
      "aints": 9382,
      "Sher": 9383,
      "shri": 9384,
      "Hugh": 9385,
      "scale": 9386,
      "61": 9387,
      "rical": 9388,
      "straw": 9389,
      "sisters": 9390,
      "aws": 9391,
      "Ze": 9392,
      "erected": 9393,
      "adj": 9394,
      "sincere": 9395,
      "owe": 9396,
      "astr": 9397,
      "EX": 9398,
      "flew": 9399,
      "suspect": 9400,
      "venture": 9401,
      "63": 9402,
      "Juli": 9403,
      "62": 9404,
      "holds": 9405,
      "readers": 9406,
      "relative": 9407,
      "Holl": 9408,
      "trick": 9409,
      "rec": 9410,
      "flung": 9411,
      "depth": 9412,
      "sore": 9413,
      "lain": 9414,
      "conducted": 9415,
      "ALPHA": 9416,
      "poured": 9417,
      "unted": 9418,
      "Pier": 9419,
      "rick": 9420,
      "graceful": 9421,
      "suitable": 9422,
      "encour": 9423,
      "creation": 9424,
      "fantry": 9425,
      "eous": 9426,
      "ORD": 9427,
      "remed": 9428,
      "iti": 9429,
      "slightest": 9430,
      "Cape": 9431,
      "China": 9432,
      "industry": 9433,
      "51": 9434,
      "interview": 9435,
      "Baron": 9436,
      "teacher": 9437,
      "fires": 9438,
      "obey": 9439,
      "Ass": 9440,
      "superst": 9441,
      "Without": 9442,
      "permit": 9443,
      "grav": 9444,
      "prayers": 9445,
      "brings": 9446,
      "contents": 9447,
      "fitted": 9448,
      "cart": 9449,
      "profit": 9450,
      "bind": 9451,
      "Dep": 9452,
      "sumption": 9453,
      "67": 9454,
      "disturb": 9455,
      "beard": 9456,
      "senses": 9457,
      "discipl": 9458,
      "itter": 9459,
      "Say": 9460,
      "satisfactory": 9461,
      "conviction": 9462,
      "midnight": 9463,
      "Ba": 9464,
      "parish": 9465,
      "effic": 9466,
      "wire": 9467,
      "RY": 9468,
      "fatig": 9469,
      "winds": 9470,
      "Jones": 9471,
      "Ple": 9472,
      "sorts": 9473,
      "Jacob": 9474,
      "Kent": 9475,
      "seriously": 9476,
      "pear": 9477,
      "maintain": 9478,
      "beings": 9479,
      "comment": 9480,
      "Made": 9481,
      "cottage": 9482,
      "begged": 9483,
      "marble": 9484,
      "inev": 9485,
      "_O": 9486,
      "Crown": 9487,
      "protect": 9488,
      "throwing": 9489,
      "neat": 9490,
      "laying": 9491,
      "mont": 9492,
      "suggestion": 9493,
      "treaty": 9494,
      "seeking": 9495,
      "inferior": 9496,
      "nurse": 9497,
      "preceding": 9498,
      "lers": 9499,
      "commod": 9500,
      "helpless": 9501,
      "lof": 9502,
      "wives": 9503,
      "wre": 9504,
      "threatened": 9505,
      "deny": 9506,
      "plays": 9507,
      "eve": 9508,
      "corpor": 9509,
      "altered": 9510,
      "ody": 9511,
      "tear": 9512,
      "ua": 9513,
      "zes": 9514,
      "apers": 9515,
      "Anton": 9516,
      "unusual": 9517,
      "embr": 9518,
      "assembled": 9519,
      "amond": 9520,
      "rath": 9521,
      "attach": 9522,
      "puzz": 9523,
      "sar": 9524,
      "Prussi": 9525,
      "merchant": 9526,
      "problem": 9527,
      "situated": 9528,
      "remove": 9529,
      "rass": 9530,
      "imm": 9531,
      "largely": 9532,
      "Sever": 9533,
      "insisted": 9534,
      "Also": 9535,
      "deter": 9536,
      "Tor": 9537,
      "suspected": 9538,
      "posal": 9539,
      "umped": 9540,
      "spic": 9541,
      "forever": 9542,
      "lyn": 9543,
      "indicated": 9544,
      "tones": 9545,
      "pressing": 9546,
      "IST": 9547,
      "nodded": 9548,
      "contempl": 9549,
      "vin": 9550,
      "permission": 9551,
      "advantages": 9552,
      "uri": 9553,
      "Sud": 9554,
      "asted": 9555,
      "dancing": 9556,
      "Gi": 9557,
      "Leg": 9558,
      "hungry": 9559,
      "kee": 9560,
      "_N": 9561,
      "LES": 9562,
      ".),": 9563,
      "Dist": 9564,
      "End": 9565,
      "beaten": 9566,
      "Give": 9567,
      "fet": 9568,
      "imagined": 9569,
      "contest": 9570,
      "settlement": 9571,
      "usions": 9572,
      "illery": 9573,
      "Part": 9574,
      "Tra": 9575,
      "continually": 9576,
      "irs": 9577,
      "driving": 9578,
      "Canada": 9579,
      "ctors": 9580,
      "ISH": 9581,
      "establish": 9582,
      "perform": 9583,
      "block": 9584,
      "isions": 9585,
      "firmed": 9586,
      "crying": 9587,
      "studied": 9588,
      "mocr": 9589,
      "ait": 9590,
      "receiving": 9591,
      "regarding": 9592,
      "leton": 9593,
      "rarely": 9594,
      "rivers": 9595,
      "maiden": 9596,
      "INE": 9597,
      "Rh": 9598,
      "supreme": 9599,
      "revel": 9600,
      "convenient": 9601,
      "mail": 9602,
      "modif": 9603,
      "contact": 9604,
      "Tro": 9605,
      "hell": 9606,
      "agent": 9607,
      "distinctly": 9608,
      "depri": 9609,
      "ESS": 9610,
      "acks": 9611,
      "cen": 9612,
      "fortunes": 9613,
      "END": 9614,
      "astonishment": 9615,
      "Cat": 9616,
      "sang": 9617,
      "sending": 9618,
      "roar": 9619,
      "dral": 9620,
      "uct": 9621,
      "Sw": 9622,
      "longed": 9623,
      "rase": 9624,
      "cru": 9625,
      "complex": 9626,
      "shortly": 9627,
      "ality": 9628,
      "exert": 9629,
      "tograph": 9630,
      "Cro": 9631,
      "oped": 9632,
      "absent": 9633,
      "safely": 9634,
      "fert": 9635,
      "ands": 9636,
      "Gard": 9637,
      "150": 9638,
      "comed": 9639,
      "ultim": 9640,
      "exhausted": 9641,
      "wilder": 9642,
      "testimony": 9643,
      "individuals": 9644,
      "drinking": 9645,
      "practically": 9646,
      "earliest": 9647,
      "notwithstanding": 9648,
      "Cross": 9649,
      "thren": 9650,
      "brush": 9651,
      "eastern": 9652,
      "ceremony": 9653,
      "conceal": 9654,
      "oke": 9655,
      "sunshine": 9656,
      "usalem": 9657,
      "contribut": 9658,
      "notion": 9659,
      "pool": 9660,
      "cris": 9661,
      "prevented": 9662,
      "duke": 9663,
      "farmer": 9664,
      "ricult": 9665,
      "shield": 9666,
      "pest": 9667,
      "strangers": 9668,
      "subs": 9669,
      "apping": 9670,
      "tendency": 9671,
      "brew": 9672,
      "nia": 9673,
      "Chief": 9674,
      "Card": 9675,
      "aloud": 9676,
      "azed": 9677,
      "resumed": 9678,
      "liance": 9679,
      "committee": 9680,
      "99": 9681,
      "torn": 9682,
      "Child": 9683,
      "rod": 9684,
      "scream": 9685,
      "quarrel": 9686,
      "refuge": 9687,
      "arian": 9688,
      "Ten": 9689,
      "succession": 9690,
      "contrad": 9691,
      "existing": 9692,
      "planted": 9693,
      "raising": 9694,
      "belongs": 9695,
      "Secretary": 9696,
      "burnt": 9697,
      "locked": 9698,
      "seventy": 9699,
      "iana": 9700,
      "ATE": 9701,
      "skir": 9702,
      "awak": 9703,
      "onic": 9704,
      "enable": 9705,
      "astonished": 9706,
      "resour": 9707,
      "cheerful": 9708,
      "omed": 9709,
      "ule": 9710,
      "horrible": 9711,
      "Pur": 9712,
      "Michael": 9713,
      "shadows": 9714,
      "genuine": 9715,
      "washed": 9716,
      "marve": 9717,
      "ilgrim": 9718,
      "theatre": 9719,
      "extrem": 9720,
      "caution": 9721,
      "leather": 9722,
      "deeds": 9723,
      "HN": 9724,
      "shake": 9725,
      "urer": 9726,
      "selected": 9727,
      "Has": 9728,
      "chapel": 9729,
      "160": 9730,
      "embarrass": 9731,
      "slipped": 9732,
      "merch": 9733,
      "sank": 9734,
      "fts": 9735,
      "originally": 9736,
      "Next": 9737,
      "Southern": 9738,
      "peril": 9739,
      "somehow": 9740,
      "Bas": 9741,
      "crossing": 9742,
      "consult": 9743,
      "Script": 9744,
      "brace": 9745,
      "deserted": 9746,
      "consequences": 9747,
      "Jerusalem": 9748,
      "TON": 9749,
      "obedience": 9750,
      "chim": 9751,
      "Romans": 9752,
      "lofty": 9753,
      "ridge": 9754,
      "stupid": 9755,
      "sheet": 9756,
      "declare": 9757,
      "woke": 9758,
      "pton": 9759,
      "engra": 9760,
      "kerchief": 9761,
      "cease": 9762,
      "hore": 9763,
      "homes": 9764,
      "omb": 9765,
      "xture": 9766,
      "thine": 9767,
      "vii": 9768,
      "Word": 9769,
      "abrupt": 9770,
      "gan": 9771,
      "nail": 9772,
      "saddle": 9773,
      "pursuit": 9774,
      "shaped": 9775,
      "ambition": 9776,
      "Ken": 9777,
      "treasure": 9778,
      "ida": 9779,
      "extensive": 9780,
      "commander": 9781,
      "external": 9782,
      "describe": 9783,
      "Cali": 9784,
      "leis": 9785,
      "FO": 9786,
      "govern": 9787,
      "borrow": 9788,
      "reckon": 9789,
      "secur": 9790,
      "mand": 9791,
      "enses": 9792,
      "wrought": 9793,
      "doth": 9794,
      "hundreds": 9795,
      "uer": 9796,
      "ules": 9797,
      "purple": 9798,
      "revealed": 9799,
      "Grace": 9800,
      "disgust": 9801,
      "naked": 9802,
      "quoted": 9803,
      "copper": 9804,
      "Constant": 9805,
      "masses": 9806,
      "Emp": 9807,
      "Turn": 9808,
      "aments": 9809,
      "inations": 9810,
      "ov": 9811,
      "emperor": 9812,
      "clerk": 9813,
      "IOT": 9814,
      "drunk": 9815,
      "muttered": 9816,
      "fling": 9817,
      "71": 9818,
      "PRE": 9819,
      "Inst": 9820,
      "yl": 9821,
      "istol": 9822,
      "Western": 9823,
      "aly": 9824,
      "tick": 9825,
      "instructions": 9826,
      "cards": 9827,
      "nay": 9828,
      "lion": 9829,
      "whir": 9830,
      "sip": 9831,
      "patriot": 9832,
      "colours": 9833,
      "gloom": 9834,
      "sale": 9835,
      "undoubted": 9836,
      "tym": 9837,
      "OMIC": 9838,
      "Dear": 9839,
      "check": 9840,
      "stim": 9841,
      "enabled": 9842,
      "portrait": 9843,
      "fastened": 9844,
      "Temple": 9845,
      "merit": 9846,
      "Fl": 9847,
      "furniture": 9848,
      "trip": 9849,
      "plun": 9850,
      "wave": 9851,
      "furious": 9852,
      "poverty": 9853,
      "heavily": 9854,
      "ample": 9855,
      "ruins": 9856,
      "moreover": 9857,
      "intelligent": 9858,
      "Atl": 9859,
      "Pass": 9860,
      "fears": 9861,
      "89": 9862,
      "Admir": 9863,
      "materials": 9864,
      "bye": 9865,
      "races": 9866,
      "People": 9867,
      "sensible": 9868,
      "temperature": 9869,
      "tt": 9870,
      "Pi": 9871,
      "Turk": 9872,
      "VE": 9873,
      "esar": 9874,
      "THER": 9875,
      "liable": 9876,
      "steadily": 9877,
      "LY": 9878,
      "Gil": 9879,
      "cared": 9880,
      "los": 9881,
      "ula": 9882,
      "trusted": 9883,
      "Constitution": 9884,
      "chose": 9885,
      "rels": 9886,
      "URE": 9887,
      "Meanwhile": 9888,
      "shock": 9889,
      "shone": 9890,
      "passages": 9891,
      "impulse": 9892,
      "bler": 9893,
      "IES": 9894,
      "quer": 9895,
      "tons": 9896,
      "iency": 9897,
      "Leon": 9898,
      "elev": 9899,
      "inquiry": 9900,
      "Post": 9901,
      "gown": 9902,
      "rifle": 9903,
      "objection": 9904,
      "Thank": 9905,
      "patron": 9906,
      "holes": 9907,
      "nois": 9908,
      "commerce": 9909,
      "udder": 9910,
      "mead": 9911,
      "ustral": 9912,
      "Mau": 9913,
      "indiffer": 9914,
      "touching": 9915,
      "73": 9916,
      "ulations": 9917,
      "pag": 9918,
      "feed": 9919,
      "thorn": 9920,
      "somebody": 9921,
      "Sc": 9922,
      "Ra": 9923,
      "Judge": 9924,
      "prize": 9925,
      "bapt": 9926,
      "convention": 9927,
      "disturbed": 9928,
      "occupation": 9929,
      "requires": 9930,
      "keys": 9931,
      "Put": 9932,
      "waist": 9933,
      "_v": 9934,
      "anyone": 9935,
      "phrase": 9936,
      "han": 9937,
      "beds": 9938,
      "load": 9939,
      "champ": 9940,
      "Spaniards": 9941,
      "tomb": 9942,
      "Sab": 9943,
      "folks": 9944,
      "queer": 9945,
      "reflection": 9946,
      "Maria": 9947,
      "isation": 9948,
      "lace": 9949,
      "fearful": 9950,
      "inspir": 9951,
      "flies": 9952,
      "apply": 9953,
      "tot": 9954,
      "sailed": 9955,
      "exquisite": 9956,
      "Time": 9957,
      "plot": 9958,
      "Dou": 9959,
      "GR": 9960,
      "toss": 9961,
      "Shakespe": 9962,
      "OMICRON": 9963,
      "stared": 9964,
      "sins": 9965,
      "imprison": 9966,
      "awk": 9967,
      "leads": 9968,
      "swim": 9969,
      "IOTA": 9970,
      "wrath": 9971,
      "route": 9972,
      "JOHN": 9973,
      "FE": 9974,
      "simp": 9975,
      "lesson": 9976,
      "adorn": 9977,
      "geo": 9978,
      "gardens": 9979,
      "changing": 9980,
      "training": 9981,
      "despatch": 9982,
      "adventure": 9983,
      "Revol": 9984,
      "perceive": 9985,
      "included": 9986,
      "artillery": 9987,
      "attain": 9988,
      "stayed": 9989,
      "alled": 9990,
      "slender": 9991,
      "verses": 9992,
      "lawyer": 9993,
      "column": 9994,
      "leisure": 9995,
      "wanting": 9996,
      "patter": 9997,
      "magic": 9998,
      "Bor": 9999,
      "tribut": 10000,
      "lightly": 10001,
      "pronounced": 10002,
      "condemned": 10003,
      "ulf": 10004,
      "lessness": 10005,
      "Fle": 10006,
      "obvious": 10007,
      "borough": 10008,
      "TE": 10009,
      "limbs": 10010,
      "pains": 10011,
      "World": 10012,
      "anywhere": 10013,
      "ranks": 10014,
      "election": 10015,
      "wart": 10016,
      "combined": 10017,
      "zeal": 10018,
      "namely": 10019,
      "introduction": 10020,
      "500": 10021,
      "Austral": 10022,
      "Ob": 10023,
      "cave": 10024,
      "HO": 10025,
      "rab": 10026,
      "ults": 10027,
      "cha": 10028,
      "dol": 10029,
      "cheap": 10030,
      "refresh": 10031,
      "shill": 10032,
      "thirteen": 10033,
      "ia_": 10034,
      "ole": 10035,
      "badly": 10036,
      "dess": 10037,
      "MS": 10038,
      "athing": 10039,
      "stair": 10040,
      "magistr": 10041,
      "closing": 10042,
      "retire": 10043,
      "overcome": 10044,
      "contented": 10045,
      "bish": 10046,
      "lun": 10047,
      "consu": 10048,
      "induced": 10049,
      "encourage": 10050,
      "leaned": 10051,
      "--'": 10052,
      "diamond": 10053,
      "leaning": 10054,
      "tran": 10055,
      "relieved": 10056,
      "85": 10057,
      "gallant": 10058,
      "Empire": 10059,
      "Germans": 10060,
      "tour": 10061,
      "medicine": 10062,
      "App": 10063,
      "torious": 10064,
      "artific": 10065,
      "Bell": 10066,
      "chin": 10067,
      "job": 10068,
      "employment": 10069,
      "itating": 10070,
      "chu": 10071,
      "Sa": 10072,
      "tiny": 10073,
      "confident": 10074,
      "Certainly": 10075,
      "Andrew": 10076,
      "fasc": 10077,
      "Var": 10078,
      "autumn": 10079,
      "grain": 10080,
      "dwelling": 10081,
      "responsible": 10082,
      "urday": 10083,
      "fron": 10084,
      "performance": 10085,
      "songs": 10086,
      "villages": 10087,
      "wich": 10088,
      "ptions": 10089,
      "otes": 10090,
      "princes": 10091,
      "PL": 10092,
      "mingled": 10093,
      "strengthen": 10094,
      "signed": 10095,
      "string": 10096,
      "joining": 10097,
      "rib": 10098,
      "regions": 10099,
      "zing": 10100,
      "Moses": 10101,
      "conceived": 10102,
      "conquer": 10103,
      "comparison": 10104,
      "immortal": 10105,
      "limit": 10106,
      "abstr": 10107,
      "Grant": 10108,
      "Sudden": 10109,
      "oo": 10110,
      "Os": 10111,
      "oman": 10112,
      "mould": 10113,
      "disgu": 10114,
      "deeper": 10115,
      "corrupt": 10116,
      "seventeen": 10117,
      "jack": 10118,
      "multitude": 10119,
      "Moreover": 10120,
      "prepare": 10121,
      "provide": 10122,
      "dur": 10123,
      "heed": 10124,
      "Florence": 10125,
      "neglect": 10126,
      "\";": 10127,
      "oused": 10128,
      "sounded": 10129,
      "assure": 10130,
      "map": 10131,
      "Flor": 10132,
      "Sand": 10133,
      "boil": 10134,
      "boots": 10135,
      "comparatively": 10136,
      "pointing": 10137,
      "Tim": 10138,
      "student": 10139,
      "trap": 10140,
      "zer": 10141,
      "deemed": 10142,
      "hastened": 10143,
      "awake": 10144,
      "membr": 10145,
      "National": 10146,
      "corps": 10147,
      "Robin": 10148,
      "gifts": 10149,
      "realized": 10150,
      "Pas": 10151,
      "civilization": 10152,
      "irk": 10153,
      "pathetic": 10154,
      "pace": 10155,
      "finest": 10156,
      "displayed": 10157,
      "antiqu": 10158,
      "ublican": 10159,
      "plates": 10160,
      "Over": 10161,
      "desol": 10162,
      "thereby": 10163,
      "Etym": 10164,
      "border": 10165,
      "repeat": 10166,
      "FIG": 10167,
      "rolling": 10168,
      "fifth": 10169,
      "exchange": 10170,
      "vivid": 10171,
      "blessing": 10172,
      "EPSILON": 10173,
      "viii": 10174,
      "rev": 10175,
      "consisted": 10176,
      "considering": 10177,
      "motive": 10178,
      "remote": 10179,
[...]
